{
  "version": "1.0",
  "truncation": null,
  "padding": null,
  "added_tokens": [
    {
      "id": 0,
      "content": "[UNK]",
      "single_word": false,
      "lstrip": false,
      "rstrip": false,
      "normalized": false,
      "special": true
    },
    {
      "id": 1,
      "content": "[PAD]",
      "single_word": false,
      "lstrip": false,
      "rstrip": false,
      "normalized": false,
      "special": true
    },
    {
      "id": 2,
      "content": "[BOS]",
      "single_word": false,
      "lstrip": false,
      "rstrip": false,
      "normalized": false,
      "special": true
    },
    {
      "id": 3,
      "content": "[EOS]",
      "single_word": false,
      "lstrip": false,
      "rstrip": false,
      "normalized": false,
      "special": true
    }
  ],
  "normalizer": {
    "type": "Sequence",
    "normalizers": [
      {
        "type": "NFC"
      },
      {
        "type": "Lowercase"
      }
    ]
  },
  "pre_tokenizer": {
    "type": "Whitespace"
  },
  "post_processor": null,
  "decoder": null,
  "model": {
    "type": "WordPiece",
    "unk_token": "[UNK]",
    "continuing_subword_prefix": "##",
    "max_input_chars_per_word": 100,
    "vocab": {
      "[UNK]": 0,
      "[PAD]": 1,
      "[BOS]": 2,
      "[EOS]": 3,
      "!": 4,
      "\"": 5,
      "#": 6,
      "$": 7,
      "%": 8,
      "&": 9,
      "'": 10,
      "(": 11,
      ")": 12,
      "*": 13,
      "+": 14,
      ",": 15,
      "-": 16,
      ".": 17,
      "/": 18,
      "0": 19,
      "1": 20,
      "2": 21,
      "3": 22,
      "4": 23,
      "5": 24,
      "6": 25,
      "7": 26,
      "8": 27,
      "9": 28,
      ":": 29,
      ";": 30,
      "<": 31,
      "=": 32,
      ">": 33,
      "?": 34,
      "@": 35,
      "[": 36,
      "\\": 37,
      "]": 38,
      "^": 39,
      "_": 40,
      "`": 41,
      "a": 42,
      "b": 43,
      "c": 44,
      "d": 45,
      "e": 46,
      "f": 47,
      "g": 48,
      "h": 49,
      "i": 50,
      "j": 51,
      "k": 52,
      "l": 53,
      "m": 54,
      "n": 55,
      "o": 56,
      "p": 57,
      "q": 58,
      "r": 59,
      "s": 60,
      "t": 61,
      "u": 62,
      "v": 63,
      "w": 64,
      "x": 65,
      "y": 66,
      "z": 67,
      "{": 68,
      "}": 69,
      "¡": 70,
      "¢": 71,
      "£": 72,
      "©": 73,
      "ª": 74,
      "«": 75,
      "­": 76,
      "°": 77,
      "±": 78,
      "²": 79,
      "´": 80,
      "µ": 81,
      "·": 82,
      "¸": 83,
      "¹": 84,
      "º": 85,
      "»": 86,
      "½": 87,
      "¾": 88,
      "ß": 89,
      "à": 90,
      "á": 91,
      "â": 92,
      "ã": 93,
      "ä": 94,
      "å": 95,
      "æ": 96,
      "ç": 97,
      "è": 98,
      "é": 99,
      "ê": 100,
      "ë": 101,
      "ì": 102,
      "í": 103,
      "î": 104,
      "ï": 105,
      "ð": 106,
      "ñ": 107,
      "ò": 108,
      "ó": 109,
      "ô": 110,
      "õ": 111,
      "ö": 112,
      "÷": 113,
      "ø": 114,
      "ù": 115,
      "ú": 116,
      "û": 117,
      "ü": 118,
      "ý": 119,
      "ā": 120,
      "ă": 121,
      "ą": 122,
      "ć": 123,
      "č": 124,
      "ď": 125,
      "đ": 126,
      "ē": 127,
      "ė": 128,
      "ę": 129,
      "ě": 130,
      "ğ": 131,
      "ģ": 132,
      "ī": 133,
      "į": 134,
      "ı": 135,
      "ķ": 136,
      "ĺ": 137,
      "ľ": 138,
      "ł": 139,
      "ń": 140,
      "ņ": 141,
      "ň": 142,
      "ō": 143,
      "ő": 144,
      "œ": 145,
      "ŕ": 146,
      "ř": 147,
      "ś": 148,
      "ş": 149,
      "š": 150,
      "ţ": 151,
      "ť": 152,
      "ū": 153,
      "ů": 154,
      "ų": 155,
      "ŵ": 156,
      "ź": 157,
      "ż": 158,
      "ž": 159,
      "ǎ": 160,
      "ǐ": 161,
      "˗": 162,
      "˚": 163,
      "̇": 164,
      "ά": 165,
      "έ": 166,
      "ή": 167,
      "ί": 168,
      "α": 169,
      "β": 170,
      "γ": 171,
      "δ": 172,
      "ε": 173,
      "ζ": 174,
      "η": 175,
      "ι": 176,
      "κ": 177,
      "λ": 178,
      "μ": 179,
      "ν": 180,
      "ξ": 181,
      "ο": 182,
      "π": 183,
      "ρ": 184,
      "ς": 185,
      "σ": 186,
      "τ": 187,
      "υ": 188,
      "φ": 189,
      "χ": 190,
      "ω": 191,
      "ό": 192,
      "ύ": 193,
      "ώ": 194,
      "а": 195,
      "б": 196,
      "в": 197,
      "г": 198,
      "д": 199,
      "е": 200,
      "ж": 201,
      "з": 202,
      "и": 203,
      "й": 204,
      "к": 205,
      "л": 206,
      "м": 207,
      "н": 208,
      "о": 209,
      "п": 210,
      "р": 211,
      "с": 212,
      "т": 213,
      "у": 214,
      "ч": 215,
      "ш": 216,
      "ъ": 217,
      "ы": 218,
      "ь": 219,
      "я": 220,
      "ܧ": 221,
      "​": 222,
      "–": 223,
      "—": 224,
      "‘": 225,
      "’": 226,
      "“": 227,
      "”": 228,
      "•": 229,
      "…": 230,
      "€": 231,
      "−": 232,
      "≤": 233,
      "舃": 234,
      "�": 235,
      "##p": 236,
      "##e": 237,
      "##n": 238,
      "##d": 239,
      "##a": 240,
      "##m": 241,
      "##l": 242,
      "##i": 243,
      "##f": 244,
      "##c": 245,
      "##z": 246,
      "##o": 247,
      "##r": 248,
      "##u": 249,
      "##b": 250,
      "##t": 251,
      "##g": 252,
      "##h": 253,
      "##v": 254,
      "##k": 255,
      "##y": 256,
      "##x": 257,
      "##s": 258,
      "##j": 259,
      "##è": 260,
      "##ă": 261,
      "##5": 262,
      "##0": 263,
      "##6": 264,
      "##4": 265,
      "##à": 266,
      "##3": 267,
      "##ò": 268,
      "##á": 269,
      "##q": 270,
      "##1": 271,
      "##°": 272,
      "##9": 273,
      "##“": 274,
      "##,": 275,
      "##8": 276,
      "##7": 277,
      "##2": 278,
      "##;": 279,
      "##ó": 280,
      "##í": 281,
      "##w": 282,
      "##ù": 283,
      "##ä": 284,
      "##ã": 285,
      "##)": 286,
      "##»": 287,
      "##-": 288,
      "##é": 289,
      "##π": 290,
      "##έ": 291,
      "##ρ": 292,
      "##č": 293,
      "##ū": 294,
      "##š": 295,
      "##º": 296,
      "##ł": 297,
      "##ú": 298,
      "##!": 299,
      "##ş": 300,
      "##ğ": 301,
      "##ο": 302,
      "##ø": 303,
      "##ß": 304,
      "##ì": 305,
      "##ï": 306,
      "##.": 307,
      "##]": 308,
      "##å": 309,
      "##:": 310,
      "##…": 311,
      "##”": 312,
      "##ǎ": 313,
      "##ö": 314,
      "##ţ": 315,
      "##ü": 316,
      "##?": 317,
      "##ń": 318,
      "##ı": 319,
      "##ε": 320,
      "##'": 321,
      "##(": 322,
      "##ç": 323,
      "##î": 324,
      "##ª": 325,
      "##ś": 326,
      "##ć": 327,
      "##ň": 328,
      "##ő": 329,
      "##ñ": 330,
      "##ê": 331,
      "##ž": 332,
      "##ź": 333,
      "##ą": 334,
      "##õ": 335,
      "##ż": 336,
      "##â": 337,
      "##μ": 338,
      "##υ": 339,
      "##ν": 340,
      "##ι": 341,
      "##σ": 342,
      "##τ": 343,
      "##κ": 344,
      "##ό": 345,
      "##\"": 346,
      "##ė": 347,
      "##ή": 348,
      "##į": 349,
      "##у": 350,
      "##т": 351,
      "##к": 352,
      "##о": 353,
      "##й": 354,
      "##–": 355,
      "##ę": 356,
      "##æ": 357,
      "##ύ": 358,
      "##ý": 359,
      "##ô": 360,
      "##/": 361,
      "##α": 362,
      "##ά": 363,
      "##ë": 364,
      "##[": 365,
      "##δ": 366,
      "##ς": 367,
      "##ы": 368,
      "##η": 369,
      "##φ": 370,
      "##λ": 371,
      "##е": 372,
      "##з": 373,
      "##а": 374,
      "##в": 375,
      "##и": 376,
      "##с": 377,
      "##м": 378,
      "##я": 379,
      "##ĺ": 380,
      "##œ": 381,
      "##ī": 382,
      "##<": 383,
      "##_": 384,
      "##ķ": 385,
      "##ľ": 386,
      "##ě": 387,
      "##ř": 388,
      "##ǐ": 389,
      "##χ": 390,
      "##ņ": 391,
      "##б": 392,
      "##р": 393,
      "##γ": 394,
      "##ί": 395,
      "##ζ": 396,
      "##ŕ": 397,
      "##@": 398,
      "##ж": 399,
      "##д": 400,
      "##ť": 401,
      "##ē": 402,
      "##&": 403,
      "###": 404,
      "##ů": 405,
      "##+": 406,
      "##û": 407,
      "##đ": 408,
      "##н": 409,
      "##ď": 410,
      "##*": 411,
      "##ð": 412,
      "##ч": 413,
      "##ш": 414,
      "##ь": 415,
      "##’": 416,
      "##л": 417,
      "##β": 418,
      "##ŵ": 419,
      "##­": 420,
      "##ų": 421,
      "##ώ": 422,
      "##ъ": 423,
      "##ω": 424,
      "##​": 425,
      "##ō": 426,
      "##‘": 427,
      "##=": 428,
      "##п": 429,
      "##ξ": 430,
      "##̇": 431,
      "##ā": 432,
      "##«": 433,
      "##>": 434,
      "##on": 435,
      "##re": 436,
      "##en": 437,
      "##to": 438,
      "##ti": 439,
      "##er": 440,
      "##ta": 441,
      "di": 442,
      "##el": 443,
      "##ion": 444,
      "##li": 445,
      "##ro": 446,
      "##ra": 447,
      "##te": 448,
      "##ri": 449,
      "in": 450,
      "##le": 451,
      "##ione": 452,
      "##ia": 453,
      "##la": 454,
      "##ss": 455,
      "del": 456,
      "##he": 457,
      "co": 458,
      "un": 459,
      "la": 460,
      "##men": 461,
      "con": 462,
      "che": 463,
      "##an": 464,
      "##or": 465,
      "##es": 466,
      "##zione": 467,
      "per": 468,
      "qu": 469,
      "al": 470,
      "##in": 471,
      "##ic": 472,
      "##is": 473,
      "il": 474,
      "de": 475,
      "com": 476,
      "##no": 477,
      "##si": 478,
      "##ar": 479,
      "##mo": 480,
      "pro": 481,
      "##ol": 482,
      "##do": 483,
      "##pe": 484,
      "po": 485,
      "##za": 486,
      "##ere": 487,
      "##tto": 488,
      "su": 489,
      "##ca": 490,
      "##tti": 491,
      "si": 492,
      "##io": 493,
      "##mi": 494,
      "le": 495,
      "##tu": 496,
      "##ono": 497,
      "da": 498,
      "##vo": 499,
      "pre": 500,
      "##po": 501,
      "##ma": 502,
      "##tà": 503,
      "ques": 504,
      "non": 505,
      "##un": 506,
      "##ce": 507,
      "##bi": 508,
      "##uro": 509,
      "##gli": 510,
      "della": 511,
      "##mento": 512,
      "##zion": 513,
      "euro": 514,
      "##ci": 515,
      "##bb": 516,
      "se": 517,
      "##tta": 518,
      "##va": 519,
      "ri": 520,
      "##co": 521,
      "nel": 522,
      "##vi": 523,
      "sta": 524,
      "##ter": 525,
      "##di": 526,
      "an": 527,
      "##mente": 528,
      "##da": 529,
      "##lo": 530,
      "una": 531,
      "par": 532,
      "so": 533,
      "##st": 534,
      "##ale": 535,
      "##azione": 536,
      "##mp": 537,
      "##are": 538,
      "##ente": 539,
      "ma": 540,
      "europe": 541,
      "##gg": 542,
      "dell": 543,
      "##pp": 544,
      "##ali": 545,
      "##ff": 546,
      "pa": 547,
      "dei": 548,
      "##iamo": 549,
      "##cc": 550,
      "##zioni": 551,
      "##ve": 552,
      "re": 553,
      "##miss": 554,
      "tra": 555,
      "##se": 556,
      "##ten": 557,
      "##ssi": 558,
      "commiss": 559,
      "##zia": 560,
      "do": 561,
      "tu": 562,
      "##go": 563,
      "##che": 564,
      "ci": 565,
      "##gn": 566,
      "ne": 567,
      "me": 568,
      "##tan": 569,
      "no": 570,
      "##so": 571,
      "##sa": 572,
      "ca": 573,
      "ris": 574,
      "##ch": 575,
      "##sid": 576,
      "##ran": 577,
      "fa": 578,
      "sono": 579,
      "##de": 580,
      "##mb": 581,
      "delle": 582,
      "##ui": 583,
      "##me": 584,
      "sul": 585,
      "##sso": 586,
      "##tra": 587,
      "dal": 588,
      "##rio": 589,
      "pi": 590,
      "##sti": 591,
      "##ica": 592,
      "##tro": 593,
      "##zza": 594,
      "alla": 595,
      "commissione": 596,
      "mo": 597,
      "##al": 598,
      "mi": 599,
      "questo": 600,
      "lo": 601,
      "rel": 602,
      "##ver": 603,
      "##du": 604,
      "ha": 605,
      "ra": 606,
      "imp": 607,
      "##sc": 608,
      "presid": 609,
      "gli": 610,
      "##hi": 611,
      "##glio": 612,
      "##ru": 613,
      "##pa": 614,
      "più": 615,
      "gi": 616,
      "ess": 617,
      "europea": 618,
      "##bili": 619,
      "##sp": 620,
      "##tre": 621,
      "##esi": 622,
      "##enza": 623,
      "##eri": 624,
      "parla": 625,
      "inter": 626,
      "##gu": 627,
      "unione": 628,
      "##tare": 629,
      "##uo": 630,
      "anche": 631,
      "##ssa": 632,
      "##lu": 633,
      "presidente": 634,
      "li": 635,
      "come": 636,
      "##sta": 637,
      "pri": 638,
      "##ero": 639,
      "poli": 640,
      "##enti": 641,
      "##ini": 642,
      "##ttu": 643,
      "##cia": 644,
      "vi": 645,
      "##olo": 646,
      "##tori": 647,
      "##menti": 648,
      "ric": 649,
      "##ppo": 650,
      "politi": 651,
      "##gra": 652,
      "app": 653,
      "stati": 654,
      "##tri": 655,
      "##man": 656,
      "##one": 657,
      "fin": 658,
      "##ni": 659,
      "sign": 660,
      "all": 661,
      "sia": 662,
      "##zi": 663,
      "##bbiamo": 664,
      "##na": 665,
      "##ga": 666,
      "quan": 667,
      "##revo": 668,
      "av": 669,
      "ai": 670,
      "##orre": 671,
      "##ano": 672,
      "ad": 673,
      "nost": 674,
      "comp": 675,
      "au": 676,
      "essere": 677,
      "##enta": 678,
      "##gno": 679,
      "##ria": 680,
      "##tte": 681,
      "##dere": 682,
      "pu": 683,
      "ono": 684,
      "comun": 685,
      "##ggi": 686,
      "for": 687,
      "parlamento": 688,
      "onorevo": 689,
      "vo": 690,
      "##era": 691,
      "##anno": 692,
      "am": 693,
      "signor": 694,
      "##ioni": 695,
      "questa": 696,
      "questi": 697,
      "mol": 698,
      "##min": 699,
      "##bile": 700,
      "cui": 701,
      "##ché": 702,
      "memb": 703,
      "te": 704,
      "##ne": 705,
      "cre": 706,
      "propo": 707,
      "col": 708,
      "relazione": 709,
      "##bbe": 710,
      "lavo": 711,
      "##ven": 712,
      "impor": 713,
      "acc": 714,
      "ec": 715,
      "##ici": 716,
      "consi": 717,
      "degli": 718,
      "inf": 719,
      "nella": 720,
      "aff": 721,
      "consiglio": 722,
      "alle": 723,
      "##ani": 724,
      "ass": 725,
      "##ul": 726,
      "##ron": 727,
      "diri": 728,
      "na": 729,
      "en": 730,
      "##ure": 731,
      "pres": 732,
      "conc": 733,
      "##ggio": 734,
      "europeo": 735,
      "membri": 736,
      "##uto": 737,
      "dire": 738,
      "ter": 739,
      "##etti": 740,
      "es": 741,
      "importan": 742,
      "im": 743,
      "##tico": 744,
      "##gi": 745,
      "paesi": 746,
      "##per": 747,
      "quanto": 748,
      "stato": 749,
      "##qu": 750,
      "##pi": 751,
      "parte": 752,
      "politica": 753,
      "##stitu": 754,
      "quel": 755,
      "dov": 756,
      "##bilità": 757,
      "##ene": 758,
      "prop": 759,
      "fon": 760,
      "##ico": 761,
      "ac": 762,
      "##erca": 763,
      "cons": 764,
      "##via": 765,
      "rela": 766,
      "##00": 767,
      "onorevole": 768,
      "ba": 769,
      "sulla": 770,
      "##lan": 771,
      "tutti": 772,
      "ar": 773,
      "##ze": 774,
      "tratta": 775,
      "giu": 776,
      "europa": 777,
      "hanno": 778,
      "##vol": 779,
      "##uta": 780,
      "##ine": 781,
      "nuo": 782,
      "chi": 783,
      "##tura": 784,
      "##tere": 785,
      "##sse": 786,
      "du": 787,
      "##orma": 788,
      "##tiva": 789,
      "##ese": 790,
      "nece": 791,
      "##menta": 792,
      "contro": 793,
      "##sto": 794,
      "##con": 795,
      "disc": 796,
      "##onom": 797,
      "##cun": 798,
      "prob": 799,
      "loro": 800,
      "##rie": 801,
      "abbiamo": 802,
      "conf": 803,
      "nell": 804,
      "alcun": 805,
      "ambi": 806,
      "proce": 807,
      "##guar": 808,
      "##fica": 809,
      "econom": 810,
      "res": 811,
      "eff": 812,
      "##ste": 813,
      "modo": 814,
      "or": 815,
      "svi": 816,
      "rif": 817,
      "fatto": 818,
      "##cis": 819,
      "##lare": 820,
      "tale": 821,
      "##hia": 822,
      "esp": 823,
      "##bbli": 824,
      "svilu": 825,
      "proble": 826,
      "##tato": 827,
      "##iste": 828,
      "vol": 829,
      "##tivo": 830,
      "##esti": 831,
      "accor": 832,
      "va": 833,
      "ver": 834,
      "molto": 835,
      "##ina": 836,
      "##dia": 837,
      "at": 838,
      "##ssione": 839,
      "##cip": 840,
      "##fic": 841,
      "##aran": 842,
      "gra": 843,
      "lavoro": 844,
      "dalla": 845,
      "riguar": 846,
      "attu": 847,
      "##rare": 848,
      "perché": 849,
      "cor": 850,
      "##mpo": 851,
      "##uti": 852,
      "vorre": 853,
      "dobbiamo": 854,
      "##ccu": 855,
      "##cora": 856,
      "ed": 857,
      "##rà": 858,
      "colle": 859,
      "possi": 860,
      "##anzia": 861,
      "quali": 862,
      "sic": 863,
      "diritti": 864,
      "nei": 865,
      "cri": 866,
      "comuni": 867,
      "poss": 868,
      "sol": 869,
      "deve": 870,
      "spe": 871,
      "##unto": 872,
      "discu": 873,
      "ho": 874,
      "##ge": 875,
      "lib": 876,
      "##gia": 877,
      "##uzione": 878,
      "##zio": 879,
      "favo": 880,
      "##ttad": 881,
      "##endo": 882,
      "##zionale": 883,
      "chia": 884,
      "finanzia": 885,
      "##cio": 886,
      "vorrei": 887,
      "commissa": 888,
      "200": 889,
      "tutta": 890,
      "##amo": 891,
      "##ello": 892,
      "##ba": 893,
      "cittad": 894,
      "##spe": 895,
      "##sione": 896,
      "setto": 897,
      "##sci": 898,
      "solo": 899,
      "##tanto": 900,
      "dovre": 901,
      "rispe": 902,
      "proposta": 903,
      "bi": 904,
      "pers": 905,
      "ser": 906,
      "partico": 907,
      "suo": 908,
      "uni": 909,
      "ele": 910,
      "ciò": 911,
      "reg": 912,
      "appro": 913,
      "##eno": 914,
      "ul": 915,
      "##oni": 916,
      "##ttiva": 917,
      "rapp": 918,
      "sc": 919,
      "socia": 920,
      "##sten": 921,
      "gru": 922,
      "commissario": 923,
      "##sì": 924,
      "##cra": 925,
      "sviluppo": 926,
      "##vis": 927,
      "##der": 928,
      "merca": 929,
      "necessa": 930,
      "ste": 931,
      "##ghi": 932,
      "posi": 933,
      "importante": 934,
      "gen": 935,
      "rego": 936,
      "stra": 937,
      "semp": 938,
      "ag": 939,
      "sp": 940,
      "sotto": 941,
      "##tica": 942,
      "decis": 943,
      "ancora": 944,
      "ru": 945,
      "cittadini": 946,
      "obi": 947,
      "può": 948,
      "go": 949,
      "##gni": 950,
      "ven": 951,
      "##mer": 952,
      "##zionali": 953,
      "tutto": 954,
      "conti": 955,
      "prima": 956,
      "tro": 957,
      "secon": 958,
      "dall": 959,
      "##tivi": 960,
      "ini": 961,
      "ora": 962,
      "obietti": 963,
      "##zzazione": 964,
      "situ": 965,
      "accordo": 966,
      "prin": 967,
      "altri": 968,
      "liv": 969,
      "mis": 970,
      "garan": 971,
      "##ino": 972,
      "rin": 973,
      "st": 974,
      "qua": 975,
      "sua": 976,
      "gran": 977,
      "questione": 978,
      "miglio": 979,
      "##stan": 980,
      "man": 981,
      "maggio": 982,
      "ado": 983,
      "##res": 984,
      "sa": 985,
      "noi": 986,
      "già": 987,
      "##urezza": 988,
      "##pon": 989,
      "##tore": 990,
      "##nza": 991,
      "quin": 992,
      "cer": 993,
      "fu": 994,
      "##menda": 995,
      "##tive": 996,
      "mon": 997,
      "emenda": 998,
      "pubbli": 999,
      "sicurezza": 1000,
      "##gna": 1001,
      "sf": 1002,
      "mio": 1003,
      "##bo": 1004,
      "##chia": 1005,
      "##gram": 1006,
      "##ando": 1007,
      "##zo": 1008,
      "cen": 1009,
      "##lmente": 1010,
      "vis": 1011,
      "tuttavia": 1012,
      "intere": 1013,
      "program": 1014,
      "##trib": 1015,
      "ese": 1016,
      "##mani": 1017,
      "siste": 1018,
      "oggi": 1019,
      "stru": 1020,
      "istitu": 1021,
      "pen": 1022,
      "uno": 1023,
      "##gere": 1024,
      "##ura": 1025,
      "dis": 1026,
      "condi": 1027,
      "por": 1028,
      "rappres": 1029,
      "##que": 1030,
      "situazione": 1031,
      "sosten": 1032,
      "impe": 1033,
      "mercato": 1034,
      "diff": 1035,
      "##lazione": 1036,
      "anni": 1037,
      "risol": 1038,
      "gover": 1039,
      "fonda": 1040,
      "fi": 1041,
      "##lica": 1042,
      "mater": 1043,
      "consid": 1044,
      "nu": 1045,
      "livello": 1046,
      "particolare": 1047,
      "demo": 1048,
      "regola": 1049,
      "inol": 1050,
      "diver": 1051,
      "##gui": 1052,
      "##ccup": 1053,
      "quindi": 1054,
      "paese": 1055,
      "inoltre": 1056,
      "due": 1057,
      "nostro": 1058,
      "fare": 1059,
      "##ona": 1060,
      "ten": 1061,
      "gruppo": 1062,
      "settore": 1063,
      "##anti": 1064,
      "##ren": 1065,
      "interna": 1066,
      "desi": 1067,
      "riten": 1068,
      "bilan": 1069,
      "far": 1070,
      "senza": 1071,
      "##nu": 1072,
      "qual": 1073,
      "##tamente": 1074,
      "favore": 1075,
      "##vono": 1076,
      "presenta": 1077,
      "altre": 1078,
      "##ttere": 1079,
      "##gnora": 1080,
      "punto": 1081,
      "democra": 1082,
      "##ato": 1083,
      "materia": 1084,
      "acce": 1085,
      "informa": 1086,
      "siamo": 1087,
      "garanti": 1088,
      "nostra": 1089,
      "##orme": 1090,
      "problema": 1091,
      "colleghi": 1092,
      "chie": 1093,
      "##almente": 1094,
      "stata": 1095,
      "op": 1096,
      "##ena": 1097,
      "trasp": 1098,
      "atti": 1099,
      "##mpio": 1100,
      "sar": 1101,
      "org": 1102,
      "sen": 1103,
      "aspe": 1104,
      "quale": 1105,
      "svol": 1106,
      "princip": 1107,
      "signora": 1108,
      "abb": 1109,
      "inizia": 1110,
      "costitu": 1111,
      "##anza": 1112,
      "sull": 1113,
      "servi": 1114,
      "quando": 1115,
      "onorevoli": 1116,
      "fine": 1117,
      "altro": 1118,
      "così": 1119,
      "secondo": 1120,
      "##stru": 1121,
      "atten": 1122,
      "alcuni": 1123,
      "##vere": 1124,
      "opp": 1125,
      "nelle": 1126,
      "tempo": 1127,
      "##erma": 1128,
      "##razione": 1129,
      "sare": 1130,
      "inten": 1131,
      "##gono": 1132,
      "diritto": 1133,
      "##dis": 1134,
      "sarà": 1135,
      "direttiva": 1136,
      "riguarda": 1137,
      "agli": 1138,
      "fondamenta": 1139,
      "##bbero": 1140,
      "rispetto": 1141,
      "ulti": 1142,
      "tali": 1143,
      "caso": 1144,
      "##tazione": 1145,
      "discussione": 1146,
      "ti": 1147,
      "##ttare": 1148,
      "##cu": 1149,
      "contrib": 1150,
      "risul": 1151,
      "liber": 1152,
      "sistema": 1153,
      "ener": 1154,
      "ve": 1155,
      "potre": 1156,
      "futu": 1157,
      "europei": 1158,
      "leg": 1159,
      "ta": 1160,
      "pertanto": 1161,
      "##duzione": 1162,
      "##enzia": 1163,
      "umani": 1164,
      "misure": 1165,
      "##rre": 1166,
      "possibile": 1167,
      "bilancio": 1168,
      "applica": 1169,
      "respon": 1170,
      "parti": 1171,
      "responsa": 1172,
      "sui": 1173,
      "devono": 1174,
      "richi": 1175,
      "##pra": 1176,
      "inc": 1177,
      "prog": 1178,
      "processo": 1179,
      "control": 1180,
      "comune": 1181,
      "##ggia": 1182,
      "ben": 1183,
      "meri": 1184,
      "ogni": 1185,
      "def": 1186,
      "base": 1187,
      "comunita": 1188,
      "siano": 1189,
      "##ord": 1190,
      "##pen": 1191,
      "pia": 1192,
      "esempio": 1193,
      "sulle": 1194,
      "agri": 1195,
      "##ccupazione": 1196,
      "sopra": 1197,
      "contra": 1198,
      "impre": 1199,
      "proprio": 1200,
      "compe": 1201,
      "ade": 1202,
      "desid": 1203,
      "conse": 1204,
      "ringra": 1205,
      "uti": 1206,
      "ori": 1207,
      "coo": 1208,
      "evi": 1209,
      "sti": 1210,
      "##chi": 1211,
      "##stra": 1212,
      "indi": 1213,
      "allo": 1214,
      "prote": 1215,
      "##ttura": 1216,
      "sempre": 1217,
      "queste": 1218,
      "##erva": 1219,
      "era": 1220,
      "pes": 1221,
      "##ranno": 1222,
      "anno": 1223,
      "sociale": 1224,
      "programma": 1225,
      "##perazione": 1226,
      "compi": 1227,
      "##tel": 1228,
      "##cca": 1229,
      "##ggiun": 1230,
      "problemi": 1231,
      "##ire": 1232,
      "##enze": 1233,
      "##colo": 1234,
      "organi": 1235,
      "occ": 1236,
      "gener": 1237,
      "autori": 1238,
      "##dica": 1239,
      "##mentare": 1240,
      "##cce": 1241,
      "nostri": 1242,
      "gior": 1243,
      "conclu": 1244,
      "dep": 1245,
      "##tenza": 1246,
      "ue": 1247,
      "##iso": 1248,
      "##teri": 1249,
      "##iche": 1250,
      "##ich": 1251,
      "19": 1252,
      "trattato": 1253,
      "momento": 1254,
      "indu": 1255,
      "##tiche": 1256,
      "luo": 1257,
      "quello": 1258,
      "fra": 1259,
      "##ortu": 1260,
      "strate": 1261,
      "affron": 1262,
      "##tati": 1263,
      "continu": 1264,
      "primo": 1265,
      "cooperazione": 1266,
      "molti": 1267,
      "bu": 1268,
      "##usa": 1269,
      "tutte": 1270,
      "consu": 1271,
      "comple": 1272,
      "##gua": 1273,
      "##tten": 1274,
      "commer": 1275,
      "futuro": 1276,
      "##dro": 1277,
      "##vità": 1278,
      "credo": 1279,
      "inte": 1280,
      "garantire": 1281,
      "##esto": 1282,
      "prodo": 1283,
      "esa": 1284,
      "##line": 1285,
      "oss": 1286,
      "##dente": 1287,
      "luogo": 1288,
      "##qui": 1289,
      "volta": 1290,
      "dichia": 1291,
      "necessario": 1292,
      "desidero": 1293,
      "val": 1294,
      "##cie": 1295,
      "soprattu": 1296,
      "soprattutto": 1297,
      "##rità": 1298,
      "pare": 1299,
      "legis": 1300,
      "##denti": 1301,
      "persone": 1302,
      "bene": 1303,
      "min": 1304,
      "##dare": 1305,
      "lei": 1306,
      "quest": 1307,
      "proposte": 1308,
      "##zzare": 1309,
      "sin": 1310,
      "quadro": 1311,
      "biso": 1312,
      "##labo": 1313,
      "##posta": 1314,
      "defini": 1315,
      "##posi": 1316,
      "prof": 1317,
      "num": 1318,
      "don": 1319,
      "governo": 1320,
      "conte": 1321,
      "##vare": 1322,
      "utili": 1323,
      "stan": 1324,
      "disp": 1325,
      "##col": 1326,
      "procedu": 1327,
      "interno": 1328,
      "dopo": 1329,
      "opportu": 1330,
      "sal": 1331,
      "dovrebbe": 1332,
      "internazionale": 1333,
      "##zie": 1334,
      "risoluzione": 1335,
      "presidenza": 1336,
      "numero": 1337,
      "limi": 1338,
      "##isce": 1339,
      "##ronti": 1340,
      "sca": 1341,
      "##tici": 1342,
      "dimo": 1343,
      "politiche": 1344,
      "##mmo": 1345,
      "natura": 1346,
      "ambito": 1347,
      "##mini": 1348,
      "sarebbe": 1349,
      "nego": 1350,
      "cir": 1351,
      "necessi": 1352,
      "##cco": 1353,
      "ritengo": 1354,
      "posizione": 1355,
      "##tali": 1356,
      "soste": 1357,
      "ov": 1358,
      "fun": 1359,
      "economica": 1360,
      "sostegno": 1361,
      "possiamo": 1362,
      "servizi": 1363,
      "popo": 1364,
      "emendamenti": 1365,
      "sottoline": 1366,
      "grande": 1367,
      "effetti": 1368,
      "negozia": 1369,
      "camb": 1370,
      "obiettivo": 1371,
      "forma": 1372,
      "##smo": 1373,
      "ricor": 1374,
      "##ari": 1375,
      "##stre": 1376,
      "regolamento": 1377,
      "##dono": 1378,
      "interven": 1379,
      "nome": 1380,
      "##istra": 1381,
      "##pre": 1382,
      "mondo": 1383,
      "20": 1384,
      "lun": 1385,
      "tec": 1386,
      "##iché": 1387,
      "nazionali": 1388,
      "gio": 1389,
      "gu": 1390,
      "abbia": 1391,
      "stesso": 1392,
      "##erà": 1393,
      "lavora": 1394,
      "##ante": 1395,
      "cosa": 1396,
      "signi": 1397,
      "dai": 1398,
      "##orto": 1399,
      "##ssimo": 1400,
      "ro": 1401,
      "merito": 1402,
      "giuri": 1403,
      "afferma": 1404,
      "##durre": 1405,
      "importanza": 1406,
      "deputa": 1407,
      "ruolo": 1408,
      "rag": 1409,
      "##gge": 1410,
      "##esione": 1411,
      "ren": 1412,
      "rappresenta": 1413,
      "reali": 1414,
      "obiettivi": 1415,
      "maggiore": 1416,
      "##erci": 1417,
      "possibilità": 1418,
      "##arsi": 1419,
      "effica": 1420,
      "occorre": 1421,
      "consider": 1422,
      "crisi": 1423,
      "possono": 1424,
      "negli": 1425,
      "##diamo": 1426,
      "can": 1427,
      "##dic": 1428,
      "##ute": 1429,
      "necessità": 1430,
      "men": 1431,
      "##manda": 1432,
      "consegu": 1433,
      "##eren": 1434,
      "mani": 1435,
      "quella": 1436,
      "capi": 1437,
      "imprese": 1438,
      "ricono": 1439,
      "car": 1440,
      "diba": 1441,
      "indust": 1442,
      "nuova": 1443,
      "consuma": 1444,
      "##orta": 1445,
      "attività": 1446,
      "però": 1447,
      "mil": 1448,
      "modi": 1449,
      "pra": 1450,
      "sco": 1451,
      "conto": 1452,
      "off": 1453,
      "autorità": 1454,
      "ins": 1455,
      "##rica": 1456,
      "segui": 1457,
      "dello": 1458,
      "preo": 1459,
      "##zzo": 1460,
      "##orti": 1461,
      "##dio": 1462,
      "perme": 1463,
      "ricerca": 1464,
      "##zz": 1465,
      "meno": 1466,
      "condizioni": 1467,
      "detto": 1468,
      "##tter": 1469,
      "socie": 1470,
      "cambia": 1471,
      "##atti": 1472,
      "nuovo": 1473,
      "donne": 1474,
      "significa": 1475,
      "esis": 1476,
      "dibatti": 1477,
      "forni": 1478,
      "##ati": 1479,
      "tal": 1480,
      "tras": 1481,
      "vita": 1482,
      "avere": 1483,
      "questioni": 1484,
      "responsabilità": 1485,
      "società": 1486,
      "pren": 1487,
      "raff": 1488,
      "soltanto": 1489,
      "##vano": 1490,
      "libertà": 1491,
      "##vato": 1492,
      "##scita": 1493,
      "io": 1494,
      "relatore": 1495,
      "fo": 1496,
      "via": 1497,
      "progre": 1498,
      "##zzi": 1499,
      "inv": 1500,
      "sociali": 1501,
      "prodotti": 1502,
      "pe": 1503,
      "sempli": 1504,
      "conce": 1505,
      "azione": 1506,
      "tre": 1507,
      "ali": 1508,
      "spa": 1509,
      "dalle": 1510,
      "intro": 1511,
      "cento": 1512,
      "##sia": 1513,
      "##esta": 1514,
      "minis": 1515,
      "speci": 1516,
      "controllo": 1517,
      "199": 1518,
      "fondi": 1519,
      "avre": 1520,
      "pur": 1521,
      "succe": 1522,
      "adotta": 1523,
      "##nan": 1524,
      "possa": 1525,
      "risor": 1526,
      "strategia": 1527,
      "##glia": 1528,
      "poiché": 1529,
      "mia": 1530,
      "pesca": 1531,
      "##meno": 1532,
      "norme": 1533,
      "ave": 1534,
      "giusti": 1535,
      "ol": 1536,
      "attenzione": 1537,
      "##grazione": 1538,
      "ord": 1539,
      "mar": 1540,
      "##denza": 1541,
      "raffor": 1542,
      "asse": 1543,
      "decisione": 1544,
      "##struzione": 1545,
      "emendamento": 1546,
      "nostre": 1547,
      "ban": 1548,
      "arti": 1549,
      "##rire": 1550,
      "##tono": 1551,
      "tran": 1552,
      "paro": 1553,
      "##rsi": 1554,
      "##cità": 1555,
      "##scri": 1556,
      "inve": 1557,
      "ambiente": 1558,
      "relazioni": 1559,
      "vista": 1560,
      "##vero": 1561,
      "opera": 1562,
      "pun": 1563,
      "##erenza": 1564,
      "comunità": 1565,
      "oltre": 1566,
      "generale": 1567,
      "nonché": 1568,
      "##cono": 1569,
      "norma": 1570,
      "ester": 1571,
      "disposi": 1572,
      "gesti": 1573,
      "risorse": 1574,
      "##ppi": 1575,
      "diversi": 1576,
      "##ccupa": 1577,
      "tur": 1578,
      "##ionale": 1579,
      "dibattito": 1580,
      "ringrazia": 1581,
      "esi": 1582,
      "qualità": 1583,
      "espre": 1584,
      "nuovi": 1585,
      "##ggior": 1586,
      "##mbra": 1587,
      "istituzioni": 1588,
      "##rietà": 1589,
      "##dato": 1590,
      "tutel": 1591,
      "##unque": 1592,
      "deputati": 1593,
      "to": 1594,
      "##nità": 1595,
      "##ccia": 1596,
      "riguardo": 1597,
      "aiuti": 1598,
      "##quis": 1599,
      "debb": 1600,
      "soli": 1601,
      "prio": 1602,
      "otten": 1603,
      "principio": 1604,
      "lotta": 1605,
      "##esa": 1606,
      "pubblica": 1607,
      "protezione": 1608,
      "##entale": 1609,
      "##sie": 1610,
      "espri": 1611,
      "raggiun": 1612,
      "invece": 1613,
      "##mere": 1614,
      "occupazione": 1615,
      "investi": 1616,
      "##lar": 1617,
      "##ssioni": 1618,
      "entra": 1619,
      "milioni": 1620,
      "amp": 1621,
      "corso": 1622,
      "proge": 1623,
      "glo": 1624,
      "osserva": 1625,
      "##alo": 1626,
      "bre": 1627,
      "assic": 1628,
      "causa": 1629,
      "##erimento": 1630,
      "valo": 1631,
      "##sioni": 1632,
      "attuale": 1633,
      "lu": 1634,
      "stabili": 1635,
      "assis": 1636,
      "grado": 1637,
      "giorno": 1638,
      "mili": 1639,
      "state": 1640,
      "glob": 1641,
      "ce": 1642,
      "consumatori": 1643,
      "##mine": 1644,
      "##tari": 1645,
      "##rato": 1646,
      "né": 1647,
      "##venzione": 1648,
      "conten": 1649,
      "ide": 1650,
      "##amento": 1651,
      "##vole": 1652,
      "equi": 1653,
      "affin": 1654,
      "##ddis": 1655,
      "cul": 1656,
      "para": 1657,
      "uo": 1658,
      "##stante": 1659,
      "##ttamente": 1660,
      "##ele": 1661,
      "rappresen": 1662,
      "estre": 1663,
      "occa": 1664,
      "valuta": 1665,
      "potrebbe": 1666,
      "rafforza": 1667,
      "parere": 1668,
      "##rori": 1669,
      "alcune": 1670,
      "##ffici": 1671,
      "affrontare": 1672,
      "##anta": 1673,
      "perio": 1674,
      "dare": 1675,
      "affinché": 1676,
      "rec": 1677,
      "dimostra": 1678,
      "progetto": 1679,
      "##gliamo": 1680,
      "articolo": 1681,
      "veri": 1682,
      "##ur": 1683,
      "##ccio": 1684,
      "vic": 1685,
      "##nanzi": 1686,
      "infine": 1687,
      "appo": 1688,
      "europee": 1689,
      "senso": 1690,
      "ordine": 1691,
      "##entra": 1692,
      "viene": 1693,
      "dif": 1694,
      "##ddisf": 1695,
      "attra": 1696,
      "stiamo": 1697,
      "chiara": 1698,
      "motivo": 1699,
      "agricol": 1700,
      "##mentari": 1701,
      "verso": 1702,
      "##ronte": 1703,
      "risposta": 1704,
      "##anto": 1705,
      "politico": 1706,
      "##atto": 1707,
      "energia": 1708,
      "interro": 1709,
      "uniti": 1710,
      "##anis": 1711,
      "procedura": 1712,
      "##rante": 1713,
      "riu": 1714,
      "##ei": 1715,
      "bisogno": 1716,
      "fino": 1717,
      "##gazione": 1718,
      "pic": 1719,
      "fondamentali": 1720,
      "obbli": 1721,
      "fondamentale": 1722,
      "fran": 1723,
      "##uire": 1724,
      "##orso": 1725,
      "dove": 1726,
      "impegno": 1727,
      "infatti": 1728,
      "certo": 1729,
      "person": 1730,
      "regioni": 1731,
      "##terio": 1732,
      "forse": 1733,
      "aspetti": 1734,
      "##ndo": 1735,
      "essenzia": 1736,
      "nuove": 1737,
      "##vamente": 1738,
      "importanti": 1739,
      "tema": 1740,
      "soluzione": 1741,
      "sfor": 1742,
      "dato": 1743,
      "applicazione": 1744,
      "sembra": 1745,
      "##muo": 1746,
      "consenti": 1747,
      "collega": 1748,
      "##ficare": 1749,
      "opportunità": 1750,
      "##termin": 1751,
      "suoi": 1752,
      "on": 1753,
      "preve": 1754,
      "ragione": 1755,
      "fronte": 1756,
      "informazioni": 1757,
      "funzion": 1758,
      "partecip": 1759,
      "##ie": 1760,
      "negoziati": 1761,
      "##ssima": 1762,
      "presente": 1763,
      "##fiche": 1764,
      "soddisf": 1765,
      "attraver": 1766,
      "##vin": 1767,
      "lavoratori": 1768,
      "rip": 1769,
      "votato": 1770,
      "##aranno": 1771,
      "saranno": 1772,
      "mondia": 1773,
      "crescita": 1774,
      "commercia": 1775,
      "ir": 1776,
      "##mu": 1777,
      "democrazia": 1778,
      "mentre": 1779,
      "adegua": 1780,
      "line": 1781,
      "manten": 1782,
      "iniziativa": 1783,
      "cultura": 1784,
      "concorre": 1785,
      "concre": 1786,
      "politici": 1787,
      "poi": 1788,
      "termine": 1789,
      "confronti": 1790,
      "lis": 1791,
      "dati": 1792,
      "##isca": 1793,
      "aver": 1794,
      "corre": 1795,
      "economia": 1796,
      "promuo": 1797,
      "vogliamo": 1798,
      "##mbre": 1799,
      "legisla": 1800,
      "settori": 1801,
      "votazione": 1802,
      "##altà": 1803,
      "qui": 1804,
      "##messo": 1805,
      "eserci": 1806,
      "docu": 1807,
      "stu": 1808,
      "ecce": 1809,
      "##sito": 1810,
      "insie": 1811,
      "assol": 1812,
      "produ": 1813,
      "insieme": 1814,
      "campo": 1815,
      "interesse": 1816,
      "##venti": 1817,
      "realtà": 1818,
      "cono": 1819,
      "termini": 1820,
      "risultati": 1821,
      "organizza": 1822,
      "cli": 1823,
      "poter": 1824,
      "##ordina": 1825,
      "determin": 1826,
      "aper": 1827,
      "##lib": 1828,
      "##taria": 1829,
      "regione": 1830,
      "san": 1831,
      "piano": 1832,
      "periodo": 1833,
      "attuazione": 1834,
      "occasione": 1835,
      "rivol": 1836,
      "##gano": 1837,
      "previs": 1838,
      "##tano": 1839,
      "traspare": 1840,
      "##nova": 1841,
      "ness": 1842,
      "testo": 1843,
      "##lea": 1844,
      "nazionale": 1845,
      "priorità": 1846,
      "diffici": 1847,
      "struttura": 1848,
      "membro": 1849,
      "##genza": 1850,
      "compren": 1851,
      "##tale": 1852,
      "colo": 1853,
      "grazie": 1854,
      "prece": 1855,
      "##scia": 1856,
      "##tata": 1857,
      "maggior": 1858,
      "estrema": 1859,
      "##tando": 1860,
      "accordi": 1861,
      "auto": 1862,
      "##nolo": 1863,
      "##ssia": 1864,
      "centra": 1865,
      "##ranza": 1866,
      "##fo": 1867,
      "picco": 1868,
      "lungo": 1869,
      "accesso": 1870,
      "##mpi": 1871,
      "##ghe": 1872,
      "stessa": 1873,
      "grandi": 1874,
      "energe": 1875,
      "rep": 1876,
      "terrori": 1877,
      "fondo": 1878,
      "setti": 1879,
      "##stri": 1880,
      "assemb": 1881,
      "sosteni": 1882,
      "##ttori": 1883,
      "circo": 1884,
      "riforma": 1885,
      "civi": 1886,
      "sue": 1887,
      "media": 1888,
      "opin": 1889,
      "propria": 1890,
      "programmi": 1891,
      "coin": 1892,
      "economico": 1893,
      "rice": 1894,
      "breve": 1895,
      "seguito": 1896,
      "##uncia": 1897,
      "##mpa": 1898,
      "passa": 1899,
      "innanzi": 1900,
      "invi": 1901,
      "##gare": 1902,
      "mondiale": 1903,
      "argo": 1904,
      "compro": 1905,
      "rapi": 1906,
      "approva": 1907,
      "progressi": 1908,
      "assemblea": 1909,
      "rappresentan": 1910,
      "mone": 1911,
      "##elli": 1912,
      "##ttive": 1913,
      "##nte": 1914,
      "desti": 1915,
      "considera": 1916,
      "sani": 1917,
      "collabo": 1918,
      "racco": 1919,
      "sostan": 1920,
      "##land": 1921,
      "pace": 1922,
      "##fici": 1923,
      "efficace": 1924,
      "ur": 1925,
      "concorrenza": 1926,
      "punti": 1927,
      "comunic": 1928,
      "riusci": 1929,
      "creare": 1930,
      "dialo": 1931,
      "terri": 1932,
      "gestione": 1933,
      "attraverso": 1934,
      "spesso": 1935,
      "fe": 1936,
      "tutela": 1937,
      "convin": 1938,
      "super": 1939,
      "##tenti": 1940,
      "mai": 1941,
      "iscri": 1942,
      "concer": 1943,
      "molte": 1944,
      "pot": 1945,
      "migliorare": 1946,
      "vengono": 1947,
      "unico": 1948,
      "##dendo": 1949,
      "are": 1950,
      "##ministra": 1951,
      "##iscono": 1952,
      "aspetto": 1953,
      "tanto": 1954,
      "produzione": 1955,
      "trasf": 1956,
      "adesione": 1957,
      "##visione": 1958,
      "##sce": 1959,
      "industria": 1960,
      "spi": 1961,
      "##gine": 1962,
      "ulterio": 1963,
      "posso": 1964,
      "voto": 1965,
      "quelli": 1966,
      "ga": 1967,
      "seri": 1968,
      "passo": 1969,
      "##mana": 1970,
      "essa": 1971,
      "##chio": 1972,
      "ringraziare": 1973,
      "capa": 1974,
      "##stro": 1975,
      "azioni": 1976,
      "##us": 1977,
      "salute": 1978,
      "##este": 1979,
      "giustizia": 1980,
      "elabo": 1981,
      "semplice": 1982,
      "clima": 1983,
      "tecnolo": 1984,
      "volon": 1985,
      "comunitario": 1986,
      "amministra": 1987,
      "durante": 1988,
      "##cen": 1989,
      "##gie": 1990,
      "esc": 1991,
      "af": 1992,
      "informazione": 1993,
      "migliore": 1994,
      "altra": 1995,
      "quelle": 1996,
      "pari": 1997,
      "dialogo": 1998,
      "##tar": 1999,
      "effe": 2000,
      "dagli": 2001,
      "sostenere": 2002,
      "##viso": 2003,
      "acco": 2004,
      "##urare": 2005,
      "dav": 2006,
      "solida": 2007,
      "costi": 2008,
      "bo": 2009,
      "intervento": 2010,
      "##bona": 2011,
      "##enda": 2012,
      "lisbona": 2013,
      "aula": 2014,
      "proposito": 2015,
      "contesto": 2016,
      "seconda": 2017,
      "incon": 2018,
      "rispon": 2019,
      "domanda": 2020,
      "coinvol": 2021,
      "forte": 2022,
      "assoluta": 2023,
      "gruppi": 2024,
      "esclu": 2025,
      "##dire": 2026,
      "dovremmo": 2027,
      "interessi": 2028,
      "maniera": 2029,
      "##terà": 2030,
      "chiaro": 2031,
      "decisioni": 2032,
      "commercio": 2033,
      "otti": 2034,
      "fer": 2035,
      "pover": 2036,
      "inclu": 2037,
      "creazione": 2038,
      "strumento": 2039,
      "##cipi": 2040,
      "sottolineare": 2041,
      "attualmente": 2042,
      "tipo": 2043,
      "approccio": 2044,
      "migliora": 2045,
      "coloro": 2046,
      "sfi": 2047,
      "ovvia": 2048,
      "ina": 2049,
      "##ficazione": 2050,
      "##stin": 2051,
      "201": 2052,
      "strumenti": 2053,
      "ultimi": 2054,
      "riun": 2055,
      "mino": 2056,
      "presentato": 2057,
      "cara": 2058,
      "is": 2059,
      "ringrazio": 2060,
      "##dito": 2061,
      "troppo": 2062,
      "serie": 2063,
      "qualche": 2064,
      "dice": 2065,
      "seno": 2066,
      "##zzato": 2067,
      "trasporto": 2068,
      "misura": 2069,
      "casi": 2070,
      "dovrebbero": 2071,
      "agrico": 2072,
      "formu": 2073,
      "##icol": 2074,
      "valutazione": 2075,
      "##rga": 2076,
      "piena": 2077,
      "##mane": 2078,
      "##lità": 2079,
      "legislazione": 2080,
      "pens": 2081,
      "popolazione": 2082,
      "##troppo": 2083,
      "suffici": 2084,
      "precis": 2085,
      "cin": 2086,
      "purtroppo": 2087,
      "prospe": 2088,
      "##onia": 2089,
      "ministro": 2090,
      "##onostante": 2091,
      "aggiun": 2092,
      "svilupp": 2093,
      "##alizzazione": 2094,
      "avanti": 2095,
      "##gratu": 2096,
      "congratu": 2097,
      "promuovere": 2098,
      "equilib": 2099,
      "##ata": 2100,
      "posti": 2101,
      "prepa": 2102,
      "bar": 2103,
      "avuto": 2104,
      "comunque": 2105,
      "spero": 2106,
      "##utare": 2107,
      "##uno": 2108,
      "conosc": 2109,
      "##remo": 2110,
      "unica": 2111,
      "immi": 2112,
      "richiesta": 2113,
      "prendere": 2114,
      "volte": 2115,
      "maggioranza": 2116,
      "strada": 2117,
      "debba": 2118,
      "vero": 2119,
      "##icolo": 2120,
      "dunque": 2121,
      "disa": 2122,
      "progetti": 2123,
      "##dano": 2124,
      "convenzione": 2125,
      "relativa": 2126,
      "competi": 2127,
      "##ell": 2128,
      "##tario": 2129,
      "comunicazione": 2130,
      "meglio": 2131,
      "presen": 2132,
      "nazioni": 2133,
      "corte": 2134,
      "##gliere": 2135,
      "assistenza": 2136,
      "possano": 2137,
      "##cano": 2138,
      "richie": 2139,
      "naturalmente": 2140,
      "turchia": 2141,
      "condivi": 2142,
      "ovviamente": 2143,
      "##rane": 2144,
      "successo": 2145,
      "##alità": 2146,
      "riferimento": 2147,
      "##minare": 2148,
      "ani": 2149,
      "visto": 2150,
      "svolto": 2151,
      "##tazioni": 2152,
      "qualsia": 2153,
      "qualsiasi": 2154,
      "solle": 2155,
      "stabilità": 2156,
      "diverse": 2157,
      "rischio": 2158,
      "vanta": 2159,
      "poten": 2160,
      "sede": 2161,
      "vera": 2162,
      "difficile": 2163,
      "parole": 2164,
      "aumento": 2165,
      "##voca": 2166,
      "regi": 2167,
      "iscritto": 2168,
      "sapp": 2169,
      "russia": 2170,
      "##trice": 2171,
      "##voli": 2172,
      "##tt": 2173,
      "##tture": 2174,
      "indipen": 2175,
      "asso": 2176,
      "adottare": 2177,
      "medi": 2178,
      "entro": 2179,
      "##bu": 2180,
      "estremamente": 2181,
      "giuridica": 2182,
      "principi": 2183,
      "##cendo": 2184,
      "dipen": 2185,
      "conferenza": 2186,
      "ausp": 2187,
      "giov": 2188,
      "bamb": 2189,
      "rifi": 2190,
      "vio": 2191,
      "pubblico": 2192,
      "verti": 2193,
      "emer": 2194,
      "##rico": 2195,
      "##gre": 2196,
      "linea": 2197,
      "loca": 2198,
      "uomo": 2199,
      "cerca": 2200,
      "anali": 2201,
      "preoccupa": 2202,
      "##revole": 2203,
      "raggiungere": 2204,
      "atto": 2205,
      "##gio": 2206,
      "##lazioni": 2207,
      "##dici": 2208,
      "difficol": 2209,
      "tecn": 2210,
      "##mania": 2211,
      "stori": 2212,
      "effici": 2213,
      "giun": 2214,
      "prov": 2215,
      "interessa": 2216,
      "atte": 2217,
      "chiaramente": 2218,
      "##gore": 2219,
      "risultato": 2220,
      "sforzi": 2221,
      "riconosci": 2222,
      "vertice": 2223,
      "ottenere": 2224,
      "presentata": 2225,
      "sov": 2226,
      "trovare": 2227,
      "senti": 2228,
      "fami": 2229,
      "##ate": 2230,
      "difficoltà": 2231,
      "penso": 2232,
      "consul": 2233,
      "evitare": 2234,
      "esprimere": 2235,
      "##eto": 2236,
      "##rale": 2237,
      "##ian": 2238,
      "riduzione": 2239,
      "accetta": 2240,
      "coordina": 2241,
      "indivi": 2242,
      "##ggiunto": 2243,
      "dichiarazione": 2244,
      "affari": 2245,
      "essenziale": 2246,
      "##mentazione": 2247,
      "##gh": 2248,
      "##ssero": 2249,
      "##tuto": 2250,
      "internazionali": 2251,
      "rile": 2252,
      "mod": 2253,
      "viol": 2254,
      "assolutamente": 2255,
      "concor": 2256,
      "davvero": 2257,
      "uso": 2258,
      "##rebbe": 2259,
      "integrazione": 2260,
      "capacità": 2261,
      "##lau": 2262,
      "##bilmente": 2263,
      "particolar": 2264,
      "##mma": 2265,
      "considerazione": 2266,
      "modifica": 2267,
      "##uzioni": 2268,
      "sape": 2269,
      "globale": 2270,
      "accol": 2271,
      "avvia": 2272,
      "specia": 2273,
      "pratica": 2274,
      "terzo": 2275,
      "##dati": 2276,
      "lega": 2277,
      "esiste": 2278,
      "stanno": 2279,
      "conta": 2280,
      "##ardi": 2281,
      "giusta": 2282,
      "##vati": 2283,
      "solidarietà": 2284,
      "##ggetto": 2285,
      "trasparenza": 2286,
      "##amente": 2287,
      "mesi": 2288,
      "##cle": 2289,
      "##fi": 2290,
      "conseguenze": 2291,
      "mini": 2292,
      "istruzione": 2293,
      "anima": 2294,
      "positivo": 2295,
      "##rata": 2296,
      "contin": 2297,
      "impo": 2298,
      "agricoltura": 2299,
      "opinione": 2300,
      "necessaria": 2301,
      "tri": 2302,
      "sistemi": 2303,
      "indica": 2304,
      "sugli": 2305,
      "##cchi": 2306,
      "sensi": 2307,
      "riti": 2308,
      "compromesso": 2309,
      "assu": 2310,
      "proprie": 2311,
      "avven": 2312,
      "##erire": 2313,
      "nucle": 2314,
      "finanziaria": 2315,
      "##isti": 2316,
      "valori": 2317,
      "##ziale": 2318,
      "amer": 2319,
      "altresì": 2320,
      "rifle": 2321,
      "##mità": 2322,
      "scel": 2323,
      "disponi": 2324,
      "guer": 2325,
      "confli": 2326,
      "iniziative": 2327,
      "quo": 2328,
      "recente": 2329,
      "ridurre": 2330,
      "investimenti": 2331,
      "##mar": 2332,
      "scorso": 2333,
      "destina": 2334,
      "lin": 2335,
      "sappiamo": 2336,
      "##len": 2337,
      "idea": 2338,
      "circa": 2339,
      "governi": 2340,
      "dan": 2341,
      "vale": 2342,
      "mettere": 2343,
      "ultima": 2344,
      "giovani": 2345,
      "##moni": 2346,
      "sci": 2347,
      "sper": 2348,
      "##gica": 2349,
      "##lari": 2350,
      "dovrà": 2351,
      "mercati": 2352,
      "centrale": 2353,
      "simi": 2354,
      "##iti": 2355,
      "ultimo": 2356,
      "note": 2357,
      "##ger": 2358,
      "paragra": 2359,
      "trasporti": 2360,
      "disposizioni": 2361,
      "venga": 2362,
      "##entali": 2363,
      "acca": 2364,
      "fidu": 2365,
      "commerciali": 2366,
      "vitti": 2367,
      "essi": 2368,
      "##rando": 2369,
      "##lato": 2370,
      "comporta": 2371,
      "scopo": 2372,
      "rendere": 2373,
      "economici": 2374,
      "conseguenza": 2375,
      "bambini": 2376,
      "##fico": 2377,
      "contributo": 2378,
      "##dan": 2379,
      "nonostante": 2380,
      "##cili": 2381,
      "lascia": 2382,
      "##cci": 2383,
      "vari": 2384,
      "##ggiare": 2385,
      "raccomanda": 2386,
      "chiedo": 2387,
      "coesione": 2388,
      "arri": 2389,
      "eli": 2390,
      "consen": 2391,
      "continuare": 2392,
      "riba": 2393,
      "fisca": 2394,
      "##media": 2395,
      "##uole": 2396,
      "forza": 2397,
      "incora": 2398,
      "riv": 2399,
      "##segui": 2400,
      "inizio": 2401,
      "acquis": 2402,
      "mina": 2403,
      "comi": 2404,
      "##rimin": 2405,
      "emiss": 2406,
      "vigore": 2407,
      "##razioni": 2408,
      "##fe": 2409,
      "agi": 2410,
      "intende": 2411,
      "formazione": 2412,
      "carica": 2413,
      "ge": 2414,
      "chiedere": 2415,
      "stre": 2416,
      "finanziario": 2417,
      "er": 2418,
      "##ggere": 2419,
      "innova": 2420,
      "particolarmente": 2421,
      "##tn": 2422,
      "diven": 2423,
      "messa": 2424,
      "impatto": 2425,
      "fornire": 2426,
      "avviso": 2427,
      "individu": 2428,
      "terzi": 2429,
      "terrorismo": 2430,
      "pericolo": 2431,
      "contempo": 2432,
      "oggetto": 2433,
      "##cche": 2434,
      "##bito": 2435,
      "fase": 2436,
      "aere": 2437,
      "##gen": 2438,
      "orienta": 2439,
      "basa": 2440,
      "elezioni": 2441,
      "##ssimi": 2442,
      "poco": 2443,
      "compito": 2444,
      "allora": 2445,
      "##tenze": 2446,
      "##ionali": 2447,
      "fiducia": 2448,
      "propri": 2449,
      "domani": 2450,
      "alcuna": 2451,
      "mecc": 2452,
      "criteri": 2453,
      "integra": 2454,
      "provve": 2455,
      "##ana": 2456,
      "affermato": 2457,
      "evidente": 2458,
      "##qua": 2459,
      "profe": 2460,
      "candi": 2461,
      "meto": 2462,
      "finanziari": 2463,
      "fosse": 2464,
      "genere": 2465,
      "segu": 2466,
      "##ffic": 2467,
      "associa": 2468,
      "prossimo": 2469,
      "gre": 2470,
      "procedure": 2471,
      "cambiamento": 2472,
      "##zzati": 2473,
      "##tena": 2474,
      "ampli": 2475,
      "##gente": 2476,
      "organizzazioni": 2477,
      "##02": 2478,
      "volontà": 2479,
      "cal": 2480,
      "documento": 2481,
      "##ismo": 2482,
      "ambientale": 2483,
      "allarga": 2484,
      "sor": 2485,
      "intra": 2486,
      "meccanis": 2487,
      "deci": 2488,
      "principali": 2489,
      "sostenibile": 2490,
      "##azioni": 2491,
      "ricordare": 2492,
      "pale": 2493,
      "000": 2494,
      "unite": 2495,
      "regole": 2496,
      "esperi": 2497,
      "##cere": 2498,
      "banca": 2499,
      "2000": 2500,
      "piccole": 2501,
      "aveva": 2502,
      "##utto": 2503,
      "organizzazione": 2504,
      "##tività": 2505,
      "giudi": 2506,
      "guerra": 2507,
      "parlare": 2508,
      "relatrice": 2509,
      "promo": 2510,
      "10": 2511,
      "compa": 2512,
      "regime": 2513,
      "posto": 2514,
      "pubblici": 2515,
      "##uttosto": 2516,
      "piuttosto": 2517,
      "tenta": 2518,
      "##tolo": 2519,
      "mezzi": 2520,
      "detta": 2521,
      "##ard": 2522,
      "##genti": 2523,
      "##polo": 2524,
      "partito": 2525,
      "gravi": 2526,
      "sch": 2527,
      "azi": 2528,
      "cose": 2529,
      "potere": 2530,
      "bri": 2531,
      "appena": 2532,
      "presentare": 2533,
      "##duta": 2534,
      "personale": 2535,
      "##torio": 2536,
      "paragrafo": 2537,
      "##arci": 2538,
      "##gico": 2539,
      "sfru": 2540,
      "libera": 2541,
      "legge": 2542,
      "nega": 2543,
      "##lessi": 2544,
      "itali": 2545,
      "##later": 2546,
      "##rci": 2547,
      "prezzi": 2548,
      "##ulla": 2549,
      "assicurare": 2550,
      "diso": 2551,
      "parola": 2552,
      "discrimin": 2553,
      "argomento": 2554,
      "uffic": 2555,
      "rafforzare": 2556,
      "avrebbe": 2557,
      "adozione": 2558,
      "quanti": 2559,
      "costituisce": 2560,
      "buon": 2561,
      "tor": 2562,
      "even": 2563,
      "contrario": 2564,
      "sì": 2565,
      "mari": 2566,
      "contribu": 2567,
      "##bc": 2568,
      "dimen": 2569,
      "osta": 2570,
      "12": 2571,
      "finanziamento": 2572,
      "##boli": 2573,
      "##tutto": 2574,
      "aiuto": 2575,
      "buona": 2576,
      "##ito": 2577,
      "finanziarie": 2578,
      "disposizione": 2579,
      "costituzione": 2580,
      "ecc": 2581,
      "##mbi": 2582,
      "quasi": 2583,
      "chiare": 2584,
      "servizio": 2585,
      "prevede": 2586,
      "isra": 2587,
      "vin": 2588,
      "direzione": 2589,
      "fronti": 2590,
      "partecipazione": 2591,
      "grave": 2592,
      "compre": 2593,
      "vali": 2594,
      "##glie": 2595,
      "anti": 2596,
      "##ssare": 2597,
      "##nare": 2598,
      "appre": 2599,
      "collaborazione": 2600,
      "##elle": 2601,
      "##riato": 2602,
      "relative": 2603,
      "proposto": 2604,
      "##guro": 2605,
      "comitato": 2606,
      "stessi": 2607,
      "paga": 2608,
      "##scere": 2609,
      "vittime": 2610,
      "revisione": 2611,
      "##ttro": 2612,
      "luce": 2613,
      "##tente": 2614,
      "ripe": 2615,
      "anzi": 2616,
      "&#": 2617,
      "parlamentari": 2618,
      "necessarie": 2619,
      "difesa": 2620,
      "mantenere": 2621,
      "parlamentare": 2622,
      "x02": 2623,
      "x02bc": 2624,
      "povertà": 2625,
      "avanza": 2626,
      "auguro": 2627,
      "scamb": 2628,
      "ap": 2629,
      "fatti": 2630,
      "porre": 2631,
      "##tezza": 2632,
      "##pin": 2633,
      "fal": 2634,
      "adesso": 2635,
      "sufficiente": 2636,
      "##ende": 2637,
      "concentra": 2638,
      "settimana": 2639,
      "inci": 2640,
      "rispondere": 2641,
      "civile": 2642,
      "singo": 2643,
      "15": 2644,
      "regionale": 2645,
      "”.": 2646,
      "rapida": 2647,
      "pron": 2648,
      "valore": 2649,
      "strutturali": 2650,
      "emissioni": 2651,
      "esso": 2652,
      "violenza": 2653,
      "riteniamo": 2654,
      "risolvere": 2655,
      "soff": 2656,
      "die": 2657,
      "contribuire": 2658,
      "comunitaria": 2659,
      "armoni": 2660,
      "giurid": 2661,
      "esame": 2662,
      "dovuto": 2663,
      "##ler": 2664,
      "stanzia": 2665,
      "immigrazione": 2666,
      "nulla": 2667,
      "##leg": 2668,
      "animali": 2669,
      "condo": 2670,
      "istituzione": 2671,
      "elementi": 2672,
      "passato": 2673,
      "devo": 2674,
      "bisogna": 2675,
      "almeno": 2676,
      "favorevole": 2677,
      "conclusione": 2678,
      "##viamo": 2679,
      "##gimento": 2680,
      "ossia": 2681,
      "potrà": 2682,
      "mor": 2683,
      "alto": 2684,
      "##iamente": 2685,
      "manc": 2686,
      "##genze": 2687,
      "cina": 2688,
      "bal": 2689,
      "deciso": 2690,
      "indis": 2691,
      "erano": 2692,
      "economiche": 2693,
      "spazio": 2694,
      "##bbio": 2695,
      "svolgere": 2696,
      "##dita": 2697,
      "eccell": 2698,
      "mala": 2699,
      "##derà": 2700,
      "vengano": 2701,
      "reca": 2702,
      "normativa": 2703,
      "motivi": 2704,
      "##cch": 2705,
      "pacche": 2706,
      "tenere": 2707,
      "deri": 2708,
      "dimenti": 2709,
      "##sizione": 2710,
      "lan": 2711,
      "condan": 2712,
      "gui": 2713,
      "benefic": 2714,
      "provvedi": 2715,
      "bru": 2716,
      "##par": 2717,
      "coordinamento": 2718,
      "consta": 2719,
      "fini": 2720,
      "popolo": 2721,
      "registra": 2722,
      "##mano": 2723,
      "##isco": 2724,
      "flessi": 2725,
      "potrebbero": 2726,
      "##vio": 2727,
      "respin": 2728,
      "assicura": 2729,
      "discutere": 2730,
      "pl": 2731,
      "##bbene": 2732,
      "mul": 2733,
      "competenze": 2734,
      "percen": 2735,
      "partena": 2736,
      "##landa": 2737,
      "##mettere": 2738,
      "ni": 2739,
      "raggiunto": 2740,
      "impie": 2741,
      "sicura": 2742,
      "dichiarazioni": 2743,
      "riforme": 2744,
      "scambio": 2745,
      "##onda": 2746,
      "crimin": 2747,
      "nessun": 2748,
      "agire": 2749,
      "asc": 2750,
      "##raggio": 2751,
      "),": 2752,
      "sola": 2753,
      "fuo": 2754,
      "dele": 2755,
      "comba": 2756,
      "##des": 2757,
      "pienamente": 2758,
      "legi": 2759,
      "##stanza": 2760,
      "proba": 2761,
      "div": 2762,
      "nessuno": 2763,
      "consa": 2764,
      "##ppure": 2765,
      "vuole": 2766,
      "##pera": 2767,
      "immedia": 2768,
      "industri": 2769,
      "alimentare": 2770,
      "unito": 2771,
      "analisi": 2772,
      "allargamento": 2773,
      "##fer": 2774,
      "repu": 2775,
      "##ck": 2776,
      "##tendo": 2777,
      "appoggio": 2778,
      "11": 2779,
      "chiesto": 2780,
      "##ture": 2781,
      "miei": 2782,
      "opportuno": 2783,
      "introduzione": 2784,
      "##cri": 2785,
      "rispetta": 2786,
      "riman": 2787,
      "mancanza": 2788,
      "sud": 2789,
      "cio": 2790,
      "regno": 2791,
      "profess": 2792,
      "rati": 2793,
      "adottato": 2794,
      "ko": 2795,
      "porto": 2796,
      "eventu": 2797,
      "##fon": 2798,
      "maggiori": 2799,
      "nello": 2800,
      "repubbli": 2801,
      "dubbio": 2802,
      "massima": 2803,
      "data": 2804,
      "zone": 2805,
      "spie": 2806,
      "##ane": 2807,
      "##posto": 2808,
      "manif": 2809,
      "##coli": 2810,
      "##ggeri": 2811,
      "effettu": 2812,
      "##care": 2813,
      "elemento": 2814,
      "scon": 2815,
      "semplicemente": 2816,
      "colpi": 2817,
      "pacchetto": 2818,
      "##ing": 2819,
      "consape": 2820,
      "oppo": 2821,
      "anch": 2822,
      "##landese": 2823,
      "quattro": 2824,
      "farlo": 2825,
      "ann": 2826,
      "ascol": 2827,
      "vedere": 2828,
      "preoccupazione": 2829,
      "definizione": 2830,
      "ger": 2831,
      "##iono": 2832,
      "competitività": 2833,
      "00": 2834,
      "alter": 2835,
      "principale": 2836,
      "##rito": 2837,
      "miglioramento": 2838,
      "##mare": 2839,
      "necessari": 2840,
      "tele": 2841,
      "consegui": 2842,
      "presenti": 2843,
      "mandato": 2844,
      "giusto": 2845,
      "origine": 2846,
      "espresso": 2847,
      "##str": 2848,
      "##lati": 2849,
      "certamente": 2850,
      "accettare": 2851,
      "chiede": 2852,
      "bensì": 2853,
      "voglio": 2854,
      "##use": 2855,
      "ovvero": 2856,
      "energetica": 2857,
      "impegna": 2858,
      "concludere": 2859,
      "##ttan": 2860,
      "migliori": 2861,
      "identi": 2862,
      "lettura": 2863,
      "##mai": 2864,
      "franc": 2865,
      "##tate": 2866,
      "##rono": 2867,
      "##tann": 2868,
      "britann": 2869,
      "offer": 2870,
      "repubblica": 2871,
      "##denzia": 2872,
      "##tor": 2873,
      "sve": 2874,
      "votare": 2875,
      "potuto": 2876,
      "bio": 2877,
      "congi": 2878,
      "voi": 2879,
      "attrib": 2880,
      "minaccia": 2881,
      "rappresentanti": 2882,
      "consenso": 2883,
      "lavorare": 2884,
      "om": 2885,
      "produttori": 2886,
      "intervenire": 2887,
      "interrogazione": 2888,
      "multi": 2889,
      "segna": 2890,
      "dimostrato": 2891,
      "trans": 2892,
      "sette": 2893,
      "aspetta": 2894,
      "##ster": 2895,
      "cioè": 2896,
      "sfide": 2897,
      "dimost": 2898,
      "##ha": 2899,
      "prova": 2900,
      "proven": 2901,
      "portare": 2902,
      "modello": 2903,
      "nord": 2904,
      "fir": 2905,
      "miliardi": 2906,
      "cinque": 2907,
      "abbiano": 2908,
      "credi": 2909,
      "medio": 2910,
      "interne": 2911,
      "veramente": 2912,
      "spese": 2913,
      "and": 2914,
      "ira": 2915,
      "costo": 2916,
      "##zzata": 2917,
      "effettivamente": 2918,
      "des": 2919,
      "visi": 2920,
      "ulteriore": 2921,
      "partenariato": 2922,
      "cambiamenti": 2923,
      "concerne": 2924,
      "seduta": 2925,
      "rispettare": 2926,
      "occupa": 2927,
      "doman": 2928,
      "equilibrio": 2929,
      "rischi": 2930,
      "requis": 2931,
      "ministri": 2932,
      "##pensa": 2933,
      "ambientali": 2934,
      "agricola": 2935,
      "disoccupazione": 2936,
      "##uni": 2937,
      "##erenze": 2938,
      "##gue": 2939,
      "tempi": 2940,
      "locali": 2941,
      "aree": 2942,
      "desider": 2943,
      "mal": 2944,
      "ormai": 2945,
      "democratico": 2946,
      "##cchia": 2947,
      "aumentare": 2948,
      "##vata": 2949,
      "ulteriori": 2950,
      "addi": 2951,
      "##duto": 2952,
      "asi": 2953,
      "##gl": 2954,
      "red": 2955,
      "impegni": 2956,
      "ferro": 2957,
      "esistono": 2958,
      "##gazioni": 2959,
      "procedere": 2960,
      "##dì": 2961,
      "vantaggio": 2962,
      "qualco": 2963,
      "promozione": 2964,
      "rifer": 2965,
      "cia": 2966,
      "discussioni": 2967,
      "irlanda": 2968,
      "scienti": 2969,
      "sapere": 2970,
      "turi": 2971,
      "ex": 2972,
      "##mon": 2973,
      "##versi": 2974,
      "bilanci": 2975,
      "intera": 2976,
      "##anze": 2977,
      "livelli": 2978,
      "relativi": 2979,
      "##uri": 2980,
      "successi": 2981,
      "realizzare": 2982,
      "controlli": 2983,
      "candidati": 2984,
      "carta": 2985,
      "indispensa": 2986,
      "mira": 2987,
      "30": 2988,
      "##gerà": 2989,
      "soluzioni": 2990,
      "##late": 2991,
      "dicembre": 2992,
      "divi": 2993,
      "eletto": 2994,
      "alterna": 2995,
      "forze": 2996,
      "qualcosa": 2997,
      "intero": 2998,
      "osservazioni": 2999,
      "##gan": 3000,
      "dena": 3001,
      "gas": 3002,
      "illu": 3003,
      "##ggiamento": 3004,
      "ritar": 3005,
      "tradi": 3006,
      "##endere": 3007,
      "aziende": 3008,
      "legitti": 3009,
      "area": 3010,
      "piani": 3011,
      "interventi": 3012,
      "##tner": 3013,
      "presenza": 3014,
      "agricoltori": 3015,
      "denaro": 3016,
      "positiva": 3017,
      "preoccupazioni": 3018,
      "partner": 3019,
      "den": 3020,
      "##lio": 3021,
      "resto": 3022,
      "##eranno": 3023,
      "eccellente": 3024,
      "vanno": 3025,
      "agenzia": 3026,
      "circolazione": 3027,
      "competenza": 3028,
      "cosid": 3029,
      "numerosi": 3030,
      "usa": 3031,
      "finora": 3032,
      "##ista": 3033,
      "definire": 3034,
      "esten": 3035,
      "cosidde": 3036,
      "##rali": 3037,
      "ragioni": 3038,
      "affi": 3039,
      "esperienza": 3040,
      "eccessi": 3041,
      "approfon": 3042,
      "oper": 3043,
      "propone": 3044,
      "armi": 3045,
      "approvazione": 3046,
      "##ortare": 3047,
      "sebbene": 3048,
      "americ": 3049,
      "innovazione": 3050,
      "verifica": 3051,
      "precedente": 3052,
      "##riamo": 3053,
      "ritiene": 3054,
      "##mite": 3055,
      "frontiere": 3056,
      "estera": 3057,
      "##rastru": 3058,
      "25": 3059,
      "democratici": 3060,
      "bel": 3061,
      "abba": 3062,
      "francia": 3063,
      "territorio": 3064,
      "segn": 3065,
      "incre": 3066,
      "temi": 3067,
      "##vvi": 3068,
      "influ": 3069,
      "democratica": 3070,
      "nucleare": 3071,
      "uomini": 3072,
      "sicuramente": 3073,
      "fuori": 3074,
      "costru": 3075,
      "##be": 3076,
      "esistenti": 3077,
      "ria": 3078,
      "##roga": 3079,
      "efficienza": 3080,
      "infrastru": 3081,
      "otto": 3082,
      "finanziamenti": 3083,
      "potenzia": 3084,
      "ieri": 3085,
      "abi": 3086,
      "conclusioni": 3087,
      "richieste": 3088,
      "##val": 3089,
      "riunione": 3090,
      "asilo": 3091,
      "attuali": 3092,
      "##sh": 3093,
      "tramite": 3094,
      "vigi": 3095,
      "zona": 3096,
      "introdurre": 3097,
      "varie": 3098,
      "congiun": 3099,
      "reti": 3100,
      "facendo": 3101,
      "lavori": 3102,
      "faci": 3103,
      "malatti": 3104,
      "conserva": 3105,
      "##elo": 3106,
      "profi": 3107,
      "diventa": 3108,
      "salva": 3109,
      "##nata": 3110,
      "##ccetta": 3111,
      "continua": 3112,
      "stand": 3113,
      "parlato": 3114,
      "comunitarie": 3115,
      "vie": 3116,
      "esigenze": 3117,
      "responsabili": 3118,
      "##ttivo": 3119,
      "previsto": 3120,
      "dovranno": 3121,
      "2007": 3122,
      "2001": 3123,
      "##ssu": 3124,
      "ampio": 3125,
      "ampliamento": 3126,
      "fre": 3127,
      "inse": 3128,
      "rico": 3129,
      "mezzo": 3130,
      "trattamento": 3131,
      "14": 3132,
      "inqu": 3133,
      "obbliga": 3134,
      "palestin": 3135,
      "prodotto": 3136,
      "storia": 3137,
      "lato": 3138,
      "##mpagna": 3139,
      "approvato": 3140,
      "assa": 3141,
      "##ciare": 3142,
      "verb": 3143,
      "utilizzo": 3144,
      "verrà": 3145,
      "##terrane": 3146,
      "giorni": 3147,
      "avrà": 3148,
      "compiere": 3149,
      "totale": 3150,
      "trattati": 3151,
      "scri": 3152,
      "lieto": 3153,
      "consentire": 3154,
      "##uito": 3155,
      "##tiamo": 3156,
      "reale": 3157,
      "effetto": 3158,
      "conflitto": 3159,
      "parità": 3160,
      "responsabile": 3161,
      "inca": 3162,
      "applicare": 3163,
      "inaccetta": 3164,
      "imma": 3165,
      "chiari": 3166,
      "prevenzione": 3167,
      "##and": 3168,
      "provvedimenti": 3169,
      "singoli": 3170,
      "iso": 3171,
      "sviluppare": 3172,
      "conferma": 3173,
      "ricev": 3174,
      "invito": 3175,
      "esclusi": 3176,
      "##poste": 3177,
      "##zzate": 3178,
      "occup": 3179,
      "##tin": 3180,
      "##icoli": 3181,
      "giuridico": 3182,
      "rientra": 3183,
      "##spi": 3184,
      "accen": 3185,
      "conso": 3186,
      "liberalizzazione": 3187,
      "##20": 3188,
      "cercare": 3189,
      "scelta": 3190,
      "sanzioni": 3191,
      "congratular": 3192,
      "sfrutta": 3193,
      "sanità": 3194,
      "sostitu": 3195,
      "comunitari": 3196,
      "occi": 3197,
      "funzionamento": 3198,
      "medie": 3199,
      "patto": 3200,
      "##mato": 3201,
      "ecco": 3202,
      "guar": 3203,
      "us": 3204,
      "##inamento": 3205,
      "##ciò": 3206,
      "##ffico": 3207,
      "##giu": 3208,
      "sei": 3209,
      "fiscale": 3210,
      "libero": 3211,
      "offrire": 3212,
      "##ac": 3213,
      "indic": 3214,
      "apertura": 3215,
      "##pren": 3216,
      "tedes": 3217,
      "trib": 3218,
      "scor": 3219,
      "##urgo": 3220,
      "giugno": 3221,
      "segre": 3222,
      "presto": 3223,
      "preso": 3224,
      "manca": 3225,
      "##stica": 3226,
      "obbligo": 3227,
      "##iore": 3228,
      "efficacia": 3229,
      "esamin": 3230,
      "rete": 3231,
      "dimensione": 3232,
      "comin": 3233,
      "adegu": 3234,
      "##cipro": 3235,
      "recipro": 3236,
      "perciò": 3237,
      "##elles": 3238,
      "evidenzia": 3239,
      "2006": 3240,
      "##dier": 3241,
      "attiva": 3242,
      "salvaguar": 3243,
      "interpre": 3244,
      "africa": 3245,
      "generali": 3246,
      "prospettive": 3247,
      "decidere": 3248,
      "reli": 3249,
      "sussi": 3250,
      "altrettan": 3251,
      "passi": 3252,
      "ciasc": 3253,
      "##erito": 3254,
      "##mbe": 3255,
      "attuare": 3256,
      "morte": 3257,
      "traffico": 3258,
      "titolo": 3259,
      "2004": 3260,
      "sto": 3261,
      "prossimi": 3262,
      "verbale": 3263,
      "blo": 3264,
      "annu": 3265,
      "enorme": 3266,
      "##ka": 3267,
      "##dotto": 3268,
      "##pro": 3269,
      "13": 3270,
      "##rani": 3271,
      "fanno": 3272,
      "cru": 3273,
      "direttamente": 3274,
      "interess": 3275,
      "tecnologie": 3276,
      "##cando": 3277,
      "nove": 3278,
      "affermare": 3279,
      "stabilire": 3280,
      "##posizione": 3281,
      "##xelles": 3282,
      "commerciale": 3283,
      "bruxelles": 3284,
      "pote": 3285,
      "##erente": 3286,
      "utile": 3287,
      "odier": 3288,
      "agenda": 3289,
      "##glianza": 3290,
      "riguard": 3291,
      "simile": 3292,
      "atteggiamento": 3293,
      "culturale": 3294,
      "illeg": 3295,
      "specifica": 3296,
      "debbano": 3297,
      "##bre": 3298,
      "##rontali": 3299,
      "sostanze": 3300,
      "prospettiva": 3301,
      "sottolineato": 3302,
      "congratularmi": 3303,
      "esse": 3304,
      "complessi": 3305,
      "rifiuti": 3306,
      "dieci": 3307,
      "rivel": 3308,
      "canc": 3309,
      "discriminazione": 3310,
      "germania": 3311,
      "guida": 3312,
      "koso": 3313,
      "1999": 3314,
      "riconoscimento": 3315,
      "##rne": 3316,
      "contenuto": 3317,
      "rinnova": 3318,
      "##roso": 3319,
      "ine": 3320,
      "considerare": 3321,
      "probabilmente": 3322,
      "combattere": 3323,
      "rapporti": 3324,
      "aggiungere": 3325,
      "conoscenza": 3326,
      "mer": 3327,
      "distri": 3328,
      "documenti": 3329,
      "requisiti": 3330,
      "##spon": 3331,
      "cro": 3332,
      "chiusa": 3333,
      "supp": 3334,
      "omc": 3335,
      "ada": 3336,
      "##samente": 3337,
      "impegn": 3338,
      "menzion": 3339,
      "”,": 3340,
      "moda": 3341,
      "spetta": 3342,
      "standard": 3343,
      "israele": 3344,
      "moder": 3345,
      "cu": 3346,
      "elen": 3347,
      "statu": 3348,
      "##stanze": 3349,
      "2002": 3350,
      "##seguire": 3351,
      "chiarezza": 3352,
      "valutare": 3353,
      "##dità": 3354,
      "carattere": 3355,
      "navi": 3356,
      "##sca": 3357,
      "riserva": 3358,
      ").": 3359,
      "prossima": 3360,
      "territori": 3361,
      "centro": 3362,
      "##usione": 3363,
      "atta": 3364,
      "tenuto": 3365,
      "pol": 3366,
      "corri": 3367,
      "##telli": 3368,
      "est": 3369,
      "indispensabile": 3370,
      "rappresentano": 3371,
      "##rlo": 3372,
      "consoli": 3373,
      "messaggio": 3374,
      "compiuti": 3375,
      "##vic": 3376,
      "giudizia": 3377,
      "mano": 3378,
      "specifiche": 3379,
      "##ccol": 3380,
      "##erti": 3381,
      "pieno": 3382,
      "alimentari": 3383,
      "permettere": 3384,
      "##gin": 3385,
      "ambizio": 3386,
      "perfe": 3387,
      "##naio": 3388,
      "noti": 3389,
      "pref": 3390,
      "trova": 3391,
      "spor": 3392,
      "concetto": 3393,
      "seguire": 3394,
      "regolamentazione": 3395,
      "spirito": 3396,
      "invia": 3397,
      "ucra": 3398,
      "svolgerà": 3399,
      "perman": 3400,
      "condizione": 3401,
      "unani": 3402,
      "sullo": 3403,
      "2009": 3404,
      "esteri": 3405,
      "##ll": 3406,
      "relativo": 3407,
      "andare": 3408,
      "giustamente": 3409,
      "##lata": 3410,
      "certi": 3411,
      "specifico": 3412,
      "feno": 3413,
      "altrettanto": 3414,
      "porta": 3415,
      "aiutare": 3416,
      "##ormi": 3417,
      "verde": 3418,
      "##ranti": 3419,
      "climatico": 3420,
      "dar": 3421,
      "ampia": 3422,
      "sv": 3423,
      "elimin": 3424,
      "domande": 3425,
      "##presa": 3426,
      "fissa": 3427,
      "lie": 3428,
      "rappresentante": 3429,
      "mediante": 3430,
      "##posti": 3431,
      "polizia": 3432,
      "organis": 3433,
      "maritti": 3434,
      "##oniamo": 3435,
      "##lici": 3436,
      "concern": 3437,
      "kosovo": 3438,
      "regionali": 3439,
      "forn": 3440,
      "dovere": 3441,
      "gennaio": 3442,
      "orientamenti": 3443,
      "##stiche": 3444,
      "2003": 3445,
      "quei": 3446,
      "conven": 3447,
      "##cuzione": 3448,
      "##ttri": 3449,
      "chiediamo": 3450,
      "osservazione": 3451,
      "costruzione": 3452,
      "##rendi": 3453,
      "dec": 3454,
      "falli": 3455,
      "complesso": 3456,
      "riconoscere": 3457,
      "##gliono": 3458,
      "vogliono": 3459,
      "amministrazione": 3460,
      "modalità": 3461,
      "arre": 3462,
      "##urocra": 3463,
      "sosp": 3464,
      "tribun": 3465,
      "ricevuto": 3466,
      "proveni": 3467,
      "orientale": 3468,
      "concili": 3469,
      "auspica": 3470,
      "##lora": 3471,
      "armonizzazione": 3472,
      "trasforma": 3473,
      "##stria": 3474,
      "utilizzare": 3475,
      "poteri": 3476,
      "appello": 3477,
      "cata": 3478,
      "acqua": 3479,
      "prezzo": 3480,
      "burocra": 3481,
      "limiti": 3482,
      "intenzione": 3483,
      "cresc": 3484,
      "militare": 3485,
      "innanzitutto": 3486,
      "trasc": 3487,
      "avviare": 3488,
      "moni": 3489,
      "rilev": 3490,
      "certa": 3491,
      "austria": 3492,
      "ridu": 3493,
      "turismo": 3494,
      "##dam": 3495,
      "indipendente": 3496,
      "esercizio": 3497,
      "2008": 3498,
      "vole": 3499,
      "##ongono": 3500,
      "2005": 3501,
      "finale": 3502,
      "richiede": 3503,
      "popoli": 3504,
      "pubbliche": 3505,
      "sfida": 3506,
      "critica": 3507,
      "subito": 3508,
      "spagno": 3509,
      "peggio": 3510,
      "presta": 3511,
      "rapporto": 3512,
      "pensare": 3513,
      "##arti": 3514,
      "slo": 3515,
      "accolgo": 3516,
      "iran": 3517,
      "flessibilità": 3518,
      "disca": 3519,
      "costante": 3520,
      "specifici": 3521,
      "francese": 3522,
      "ferma": 3523,
      "##rittura": 3524,
      "cit": 3525,
      "##gato": 3526,
      "addirittura": 3527,
      "libro": 3528,
      "##damento": 3529,
      "##cani": 3530,
      "influenza": 3531,
      "fru": 3532,
      "rafforzamento": 3533,
      "disponibili": 3534,
      "nuovamente": 3535,
      "costr": 3536,
      "2010": 3537,
      "occid": 3538,
      "distrib": 3539,
      "transf": 3540,
      "ratifica": 3541,
      "##ber": 3542,
      "civili": 3543,
      "##eso": 3544,
      "adeguata": 3545,
      "transfrontali": 3546,
      "meccanismo": 3547,
      "ber": 3548,
      "espressione": 3549,
      "presso": 3550,
      "agg": 3551,
      "monetaria": 3552,
      "direttive": 3553,
      "fr": 3554,
      "adottata": 3555,
      "inde": 3556,
      "diventare": 3557,
      "cop": 3558,
      "condivido": 3559,
      "##mobili": 3560,
      "potranno": 3561,
      "realizzazione": 3562,
      "partecipare": 3563,
      "infrastrutture": 3564,
      "inaccettabile": 3565,
      "egli": 3566,
      "rapidamente": 3567,
      "mese": 3568,
      "interni": 3569,
      "##tanti": 3570,
      "##stico": 3571,
      "faccia": 3572,
      "##ormente": 3573,
      "finalmente": 3574,
      "##teriormente": 3575,
      "intensi": 3576,
      "assun": 3577,
      "proto": 3578,
      "delegazione": 3579,
      "##volmente": 3580,
      "portata": 3581,
      "modifiche": 3582,
      "posizioni": 3583,
      "miglia": 3584,
      "mediterrane": 3585,
      "ferrovia": 3586,
      "##bbi": 3587,
      "##tarie": 3588,
      "città": 3589,
      "persino": 3590,
      "nem": 3591,
      "monito": 3592,
      "ulteriormente": 3593,
      "percento": 3594,
      "iraq": 3595,
      "provoca": 3596,
      "##dizione": 3597,
      "sé": 3598,
      "massimo": 3599,
      "concordo": 3600,
      "dover": 3601,
      "danno": 3602,
      "gioco": 3603,
      "protocol": 3604,
      "settimane": 3605,
      "gia": 3606,
      "tener": 3607,
      "##tterà": 3608,
      "urgente": 3609,
      "imposta": 3610,
      "rigo": 3611,
      "marzo": 3612,
      "grecia": 3613,
      "dovremo": 3614,
      "##dice": 3615,
      "ind": 3616,
      "acque": 3617,
      "persona": 3618,
      "etiche": 3619,
      "danni": 3620,
      "##ggetti": 3621,
      "##ader": 3622,
      "studio": 3623,
      "##gover": 3624,
      "##gici": 3625,
      "globalizzazione": 3626,
      "vinco": 3627,
      "ricon": 3628,
      "testi": 3629,
      "specie": 3630,
      "beneficia": 3631,
      "insta": 3632,
      "fonti": 3633,
      "passe": 3634,
      "pratiche": 3635,
      "pena": 3636,
      "stesse": 3637,
      "situazioni": 3638,
      "relatori": 3639,
      "##dri": 3640,
      "##tego": 3641,
      "basi": 3642,
      "richia": 3643,
      "##dersi": 3644,
      "lon": 3645,
      "capitale": 3646,
      "##lin": 3647,
      "progresso": 3648,
      "evol": 3649,
      "catego": 3650,
      "sviluppi": 3651,
      "sforzo": 3652,
      "partiti": 3653,
      "el": 3654,
      "oppure": 3655,
      "aboli": 3656,
      "coraggio": 3657,
      "50": 3658,
      "presu": 3659,
      "adottate": 3660,
      "sarebbero": 3661,
      "##lauso": 3662,
      "completamente": 3663,
      "##lino": 3664,
      "ricordato": 3665,
      "simili": 3666,
      "med": 3667,
      "petro": 3668,
      "inda": 3669,
      "chiave": 3670,
      "rurale": 3671,
      "condanna": 3672,
      "personalmente": 3673,
      "giungere": 3674,
      "ufficia": 3675,
      "dra": 3676,
      "##laterali": 3677,
      "##ton": 3678,
      "risulta": 3679,
      "riser": 3680,
      "minori": 3681,
      "vantaggi": 3682,
      "resi": 3683,
      "concreti": 3684,
      "ritor": 3685,
      "strutture": 3686,
      "divieto": 3687,
      "notevole": 3688,
      "proteggere": 3689,
      "##mia": 3690,
      "pochi": 3691,
      "##venire": 3692,
      "potremo": 3693,
      "operatori": 3694,
      "##ranze": 3695,
      "leader": 3696,
      "capire": 3697,
      "##volta": 3698,
      "partire": 3699,
      "lunga": 3700,
      "##cor": 3701,
      "consenta": 3702,
      "18": 3703,
      "posta": 3704,
      "rispar": 3705,
      "settembre": 3706,
      "vice": 3707,
      "##scin": 3708,
      "metodo": 3709,
      "troviamo": 3710,
      "crucia": 3711,
      "##rore": 3712,
      "applau": 3713,
      "voce": 3714,
      "##ttivi": 3715,
      "legislativo": 3716,
      "precedenti": 3717,
      "##rati": 3718,
      "conver": 3719,
      "ries": 3720,
      "riusciti": 3721,
      "opposizione": 3722,
      "restri": 3723,
      "##visi": 3724,
      "adeguato": 3725,
      "##ssime": 3726,
      "ppe": 3727,
      "discip": 3728,
      "meccanismi": 3729,
      "italia": 3730,
      "##toria": 3731,
      "##altro": 3732,
      "peraltro": 3733,
      "sepa": 3734,
      "analo": 3735,
      "17": 3736,
      "forme": 3737,
      "resta": 3738,
      "rece": 3739,
      "positivi": 3740,
      "piacere": 3741,
      "esercitare": 3742,
      "##nali": 3743,
      "ucraina": 3744,
      "##stare": 3745,
      "aumenta": 3746,
      "garanzia": 3747,
      "raccomandazioni": 3748,
      "##governa": 3749,
      "scar": 3750,
      "inco": 3751,
      "insu": 3752,
      "interessati": 3753,
      "##bia": 3754,
      "veni": 3755,
      "costituiscono": 3756,
      "presentati": 3757,
      "insis": 3758,
      "irre": 3759,
      "##vate": 3760,
      "bassi": 3761,
      "passeggeri": 3762,
      "incontro": 3763,
      "ral": 3764,
      "profu": 3765,
      "##ssere": 3766,
      "##ficata": 3767,
      "##nti": 3768,
      "age": 3769,
      "onu": 3770,
      "internet": 3771,
      "consumo": 3772,
      "favorire": 3773,
      "permette": 3774,
      "care": 3775,
      "popolare": 3776,
      "sce": 3777,
      "intergoverna": 3778,
      "mare": 3779,
      "migliaia": 3780,
      "tentativo": 3781,
      "ufficio": 3782,
      "numerose": 3783,
      "fro": 3784,
      "##ddo": 3785,
      "##eria": 3786,
      "pressione": 3787,
      "augu": 3788,
      "potenziale": 3789,
      "sba": 3790,
      "spagna": 3791,
      "romania": 3792,
      "protocollo": 3793,
      "incenti": 3794,
      "##temi": 3795,
      "spin": 3796,
      "possibili": 3797,
      "van": 3798,
      "##quo": 3799,
      "pronuncia": 3800,
      "criminalità": 3801,
      "umana": 3802,
      "conflitti": 3803,
      "esperti": 3804,
      "pensa": 3805,
      "##rmi": 3806,
      "##imento": 3807,
      "merci": 3808,
      "pressioni": 3809,
      "cristi": 3810,
      "plu": 3811,
      "minimo": 3812,
      "profonda": 3813,
      "##gina": 3814,
      "spesa": 3815,
      "priori": 3816,
      "dev": 3817,
      "militari": 3818,
      "distin": 3819,
      "collo": 3820,
      "sostenuto": 3821,
      "elaborare": 3822,
      "##stiene": 3823,
      "cla": 3824,
      "applausi": 3825,
      "dichiarato": 3826,
      "efficaci": 3827,
      "##ssibile": 3828,
      "riferisco": 3829,
      "lingua": 3830,
      "##ts": 3831,
      "violazioni": 3832,
      "ipo": 3833,
      "##mati": 3834,
      "novembre": 3835,
      "beni": 3836,
      "parteci": 3837,
      "compiuto": 3838,
      "bul": 3839,
      "dimostrare": 3840,
      "associazione": 3841,
      "sostiene": 3842,
      "##ania": 3843,
      "catastro": 3844,
      "##ko": 3845,
      "centrali": 3846,
      "messo": 3847,
      "assai": 3848,
      "##viene": 3849,
      "america": 3850,
      "ricorso": 3851,
      "coerente": 3852,
      "appar": 3853,
      "aereo": 3854,
      "obblighi": 3855,
      "poveri": 3856,
      "##chiamo": 3857,
      "interrogazioni": 3858,
      "consapevole": 3859,
      "##mba": 3860,
      "convinto": 3861,
      "parlamenti": 3862,
      "##mina": 3863,
      "imporre": 3864,
      "metodi": 3865,
      "##kis": 3866,
      "segnale": 3867,
      "##mio": 3868,
      "appare": 3869,
      "edi": 3870,
      "##mie": 3871,
      "eliminare": 3872,
      "incoraggiare": 3873,
      "##vamo": 3874,
      "funzione": 3875,
      "##rvi": 3876,
      "leggi": 3877,
      "minoranze": 3878,
      "##gini": 3879,
      "##stici": 3880,
      "maggiormente": 3881,
      "clauso": 3882,
      "##ticamente": 3883,
      "##oru": 3884,
      "raccol": 3885,
      "affatto": 3886,
      "indipendenza": 3887,
      "incoraggia": 3888,
      "16": 3889,
      "##erenti": 3890,
      "##th": 3891,
      "implica": 3892,
      "preoccup": 3893,
      "##rò": 3894,
      "deputato": 3895,
      "infer": 3896,
      "letter": 3897,
      "contiene": 3898,
      "sub": 3899,
      "elevato": 3900,
      "linee": 3901,
      "##gion": 3902,
      "ricorre": 3903,
      "locale": 3904,
      "##rla": 3905,
      "##messe": 3906,
      "sussidia": 3907,
      "ero": 3908,
      "##tteri": 3909,
      "tasso": 3910,
      "plena": 3911,
      "ottobre": 3912,
      "agen": 3913,
      "deplo": 3914,
      "moneta": 3915,
      "benché": 3916,
      "##mbo": 3917,
      "paci": 3918,
      "dimin": 3919,
      "mie": 3920,
      "riguardano": 3921,
      "##ianco": 3922,
      "##messi": 3923,
      "concrete": 3924,
      "##rano": 3925,
      "##mpe": 3926,
      "capitali": 3927,
      "tecnologia": 3928,
      "entrambe": 3929,
      "discusso": 3930,
      "appoggia": 3931,
      "rea": 3932,
      "raccomandazione": 3933,
      "appli": 3934,
      "quar": 3935,
      "esaminare": 3936,
      "conne": 3937,
      "##revoli": 3938,
      "definitiva": 3939,
      "##ki": 3940,
      "completa": 3941,
      "agenzie": 3942,
      "idee": 3943,
      "##gal": 3944,
      "enti": 3945,
      "facile": 3946,
      "biel": 3947,
      "deten": 3948,
      "offre": 3949,
      "oriente": 3950,
      "rifu": 3951,
      "privati": 3952,
      "##eremo": 3953,
      "terre": 3954,
      "portato": 3955,
      "##sco": 3956,
      "motiva": 3957,
      "energetico": 3958,
      "##ttatura": 3959,
      "ostacoli": 3960,
      "bieloru": 3961,
      "rima": 3962,
      "riserve": 3963,
      "##missione": 3964,
      "##plo": 3965,
      "istituire": 3966,
      "donna": 3967,
      "geo": 3968,
      "##est": 3969,
      "consultazione": 3970,
      "qualora": 3971,
      "##tesi": 3972,
      "nemmeno": 3973,
      "rila": 3974,
      "rimane": 3975,
      "speciale": 3976,
      "industriale": 3977,
      "dia": 3978,
      "crea": 3979,
      "corrispon": 3980,
      "temp": 3981,
      "2020": 3982,
      "##arlo": 3983,
      "esecuzione": 3984,
      "consumatore": 3985,
      "apri": 3986,
      "##tuale": 3987,
      "ottima": 3988,
      "destinati": 3989,
      "##ruzione": 3990,
      "fenomeno": 3991,
      "mediterraneo": 3992,
      "patri": 3993,
      "##uore": 3994,
      "##tù": 3995,
      "manifes": 3996,
      "pmi": 3997,
      "neppure": 3998,
      "costituire": 3999,
      "circostanze": 4000,
      "constatare": 4001,
      "##mica": 4002,
      "##ttron": 4003,
      "penale": 4004,
      "ottenuto": 4005,
      "quote": 4006,
      "confor": 4007,
      "sicuro": 4008,
      "funzionari": 4009,
      "##gendo": 4010,
      "vostra": 4011,
      "sussidiarietà": 4012,
      "elettron": 4013,
      "abbastanza": 4014,
      "bulga": 4015,
      "verranno": 4016,
      "assenza": 4017,
      "##ada": 4018,
      "opinioni": 4019,
      "modificare": 4020,
      "ripren": 4021,
      "elenco": 4022,
      "27": 4023,
      "tratti": 4024,
      "##lia": 4025,
      "impedire": 4026,
      "accogliere": 4027,
      "confini": 4028,
      "plenaria": 4029,
      "efficiente": 4030,
      "##teranno": 4031,
      "violazione": 4032,
      "stanziamenti": 4033,
      "##erare": 4034,
      "costre": 4035,
      "##giche": 4036,
      "##vers": 4037,
      "pazi": 4038,
      "amster": 4039,
      "urgenza": 4040,
      "ricord": 4041,
      "amsterdam": 4042,
      "gente": 4043,
      "esporta": 4044,
      "assumere": 4045,
      "chiu": 4046,
      "esterne": 4047,
      "##ssic": 4048,
      "digni": 4049,
      "##data": 4050,
      "irlandese": 4051,
      "compen": 4052,
      "malattie": 4053,
      "cif": 4054,
      "naturali": 4055,
      "vincolan": 4056,
      "pila": 4057,
      "crescente": 4058,
      "prevista": 4059,
      "abu": 4060,
      "tol": 4061,
      "rica": 4062,
      "##mun": 4063,
      "movi": 4064,
      "istituzionale": 4065,
      "stampa": 4066,
      "trovano": 4067,
      "##laterale": 4068,
      "altrimenti": 4069,
      "##engen": 4070,
      "pon": 4071,
      "contenuti": 4072,
      "schengen": 4073,
      "approvare": 4074,
      "entrambi": 4075,
      "aero": 4076,
      "bas": 4077,
      "pension": 4078,
      "feder": 4079,
      "stimo": 4080,
      "professionale": 4081,
      "conseguire": 4082,
      "considerando": 4083,
      "sovven": 4084,
      "annuale": 4085,
      "##cuno": 4086,
      "apparten": 4087,
      "condotta": 4088,
      "ripresa": 4089,
      "cam": 4090,
      "là": 4091,
      "ribadire": 4092,
      "incontra": 4093,
      "anz": 4094,
      "proporre": 4095,
      "sottoscri": 4096,
      "entrata": 4097,
      "piccoli": 4098,
      "anziché": 4099,
      "esigenza": 4100,
      "famiglie": 4101,
      "##presid": 4102,
      "significativo": 4103,
      "##ttono": 4104,
      "mobilità": 4105,
      "aperto": 4106,
      "##gallo": 4107,
      "nn": 4108,
      "impresa": 4109,
      "##lie": 4110,
      "nucleari": 4111,
      "passare": 4112,
      "scambi": 4113,
      "diretto": 4114,
      "artico": 4115,
      "avete": 4116,
      "diplo": 4117,
      "fis": 4118,
      "##istiche": 4119,
      "consente": 4120,
      "garanzie": 4121,
      "entrare": 4122,
      "##versità": 4123,
      "debito": 4124,
      "avremo": 4125,
      "dimenticare": 4126,
      "##gola": 4127,
      "essenziali": 4128,
      "considerato": 4129,
      "differenze": 4130,
      "lettera": 4131,
      "annuncia": 4132,
      "##missi": 4133,
      "inuti": 4134,
      "tutelare": 4135,
      "futura": 4136,
      "discarico": 4137,
      "relativamente": 4138,
      "essendo": 4139,
      "benessere": 4140,
      "cittadino": 4141,
      "##fa": 4142,
      "diversità": 4143,
      "##versa": 4144,
      "banche": 4145,
      "speranza": 4146,
      "risposte": 4147,
      "decisi": 4148,
      "ii": 4149,
      "prassi": 4150,
      "##mando": 4151,
      "difendere": 4152,
      "eco": 4153,
      "continente": 4154,
      "speciali": 4155,
      "fonte": 4156,
      "##erò": 4157,
      "chiarire": 4158,
      "carb": 4159,
      "fiscali": 4160,
      "esistenza": 4161,
      "comprendere": 4162,
      "rigoro": 4163,
      "esattamente": 4164,
      "##ficato": 4165,
      "discipli": 4166,
      "ton": 4167,
      "carne": 4168,
      "forti": 4169,
      "commissari": 4170,
      "nato": 4171,
      "impiego": 4172,
      "scorsa": 4173,
      "recenti": 4174,
      "metà": 4175,
      "inquinamento": 4176,
      "01": 4177,
      "##sb": 4178,
      "econo": 4179,
      "##inato": 4180,
      "critiche": 4181,
      "operazioni": 4182,
      "famiglia": 4183,
      "mobili": 4184,
      "elettri": 4185,
      "##tud": 4186,
      "dura": 4187,
      "elaborazione": 4188,
      "caratteri": 4189,
      "cruciale": 4190,
      "reddito": 4191,
      "propor": 4192,
      "cuore": 4193,
      "immediatamente": 4194,
      "permanente": 4195,
      "##teremo": 4196,
      "##icazioni": 4197,
      "intrapren": 4198,
      "##vvigion": 4199,
      "##inare": 4200,
      "eventi": 4201,
      "giudizio": 4202,
      "40": 4203,
      "##poli": 4204,
      "ancor": 4205,
      "disponibilità": 4206,
      "unità": 4207,
      "diversa": 4208,
      "qualunque": 4209,
      "sved": 4210,
      "approvvigion": 4211,
      "legislativa": 4212,
      "accel": 4213,
      "india": 4214,
      "condu": 4215,
      "rende": 4216,
      "vicini": 4217,
      "privi": 4218,
      "vicepresid": 4219,
      "confron": 4220,
      "deriv": 4221,
      "##dite": 4222,
      "portogallo": 4223,
      "conforme": 4224,
      "##lano": 4225,
      "diverso": 4226,
      "sostanzia": 4227,
      "esito": 4228,
      "economie": 4229,
      "costituzionale": 4230,
      "transa": 4231,
      "asia": 4232,
      "industriali": 4233,
      "canto": 4234,
      "figu": 4235,
      "costruire": 4236,
      "sessu": 4237,
      "considere": 4238,
      "talvolta": 4239,
      "nota": 4240,
      "odierna": 4241,
      "mostra": 4242,
      "desidera": 4243,
      "farma": 4244,
      "luglio": 4245,
      "pone": 4246,
      "##ttendo": 4247,
      "sentito": 4248,
      "##viste": 4249,
      "##..": 4250,
      "esseri": 4251,
      "presentate": 4252,
      "espressa": 4253,
      "età": 4254,
      "previsti": 4255,
      "statuto": 4256,
      "presti": 4257,
      "intergovernativa": 4258,
      "abband": 4259,
      "prese": 4260,
      "regolamenti": 4261,
      "preparazione": 4262,
      "##fin": 4263,
      "pure": 4264,
      "noto": 4265,
      "primi": 4266,
      "rinnovabili": 4267,
      "limite": 4268,
      "ecolo": 4269,
      "affer": 4270,
      "lui": 4271,
      "fossero": 4272,
      "immigra": 4273,
      "21": 4274,
      "ricordo": 4275,
      "##tidia": 4276,
      "##iano": 4277,
      "impa": 4278,
      "quotidia": 4279,
      "lingue": 4280,
      "distru": 4281,
      "ambiti": 4282,
      "consiste": 4283,
      "liberali": 4284,
      "carico": 4285,
      "campagna": 4286,
      "giornali": 4287,
      "flu": 4288,
      "delica": 4289,
      "cap": 4290,
      "iniziare": 4291,
      "voluto": 4292,
      "acp": 4293,
      "ricevere": 4294,
      "autono": 4295,
      "polonia": 4296,
      "imprendi": 4297,
      "automobili": 4298,
      "provenienti": 4299,
      "conciliazione": 4300,
      "vicino": 4301,
      "congratulo": 4302,
      "presa": 4303,
      "famili": 4304,
      "venire": 4305,
      "pie": 4306,
      "reso": 4307,
      "unanimità": 4308,
      "massa": 4309,
      "rischia": 4310,
      "##terò": 4311,
      "sapete": 4312,
      "ab": 4313,
      "##rle": 4314,
      "rifugia": 4315,
      "##vie": 4316,
      "superare": 4317,
      "aggiunto": 4318,
      "condurre": 4319,
      "##nato": 4320,
      "fattori": 4321,
      "supera": 4322,
      "asten": 4323,
      "intendo": 4324,
      "basta": 4325,
      "visione": 4326,
      "favorevoli": 4327,
      "riconosc": 4328,
      "veicoli": 4329,
      "interessate": 4330,
      "missione": 4331,
      "##anda": 4332,
      "presentazione": 4333,
      "cambiare": 4334,
      "straordina": 4335,
      "prevedere": 4336,
      "nessuna": 4337,
      "organismi": 4338,
      "facc": 4339,
      "##guaglianza": 4340,
      "##grado": 4341,
      "basata": 4342,
      "##tru": 4343,
      "pagamenti": 4344,
      "alb": 4345,
      "religio": 4346,
      "##ella": 4347,
      "errore": 4348,
      "hu": 4349,
      "##pito": 4350,
      "ore": 4351,
      "diploma": 4352,
      "proprietà": 4353,
      "parlando": 4354,
      "inso": 4355,
      "##rate": 4356,
      "barroso": 4357,
      "##metri": 4358,
      "##zze": 4359,
      "verific": 4360,
      "riper": 4361,
      "dettagli": 4362,
      "sottolinea": 4363,
      "facili": 4364,
      "descri": 4365,
      "##ordo": 4366,
      "vicepresidente": 4367,
      "disporre": 4368,
      "tecniche": 4369,
      "corretto": 4370,
      "partecipa": 4371,
      "##monio": 4372,
      "quantità": 4373,
      "sfruttamento": 4374,
      "dipende": 4375,
      "arma": 4376,
      "soffer": 4377,
      "finanziare": 4378,
      "soddisfazione": 4379,
      "##gne": 4380,
      "ragionevole": 4381,
      "##lanza": 4382,
      "soggetti": 4383,
      "compor": 4384,
      "afgh": 4385,
      "credibilità": 4386,
      "cause": 4387,
      "ref": 4388,
      "ka": 4389,
      "cipro": 4390,
      "porti": 4391,
      "fore": 4392,
      "votazioni": 4393,
      "approp": 4394,
      "##istica": 4395,
      "muo": 4396,
      "impossibile": 4397,
      "impian": 4398,
      "senz": 4399,
      "mediatore": 4400,
      "evoluzione": 4401,
      "agricolo": 4402,
      "vivono": 4403,
      "afri": 4404,
      "##denze": 4405,
      "##ttina": 4406,
      "realmente": 4407,
      "basso": 4408,
      "occor": 4409,
      "taba": 4410,
      "incidenti": 4411,
      "avvic": 4412,
      "##mbar": 4413,
      "visti": 4414,
      "rimanere": 4415,
      "##gione": 4416,
      "accade": 4417,
      "##urope": 4418,
      "prescin": 4419,
      "popolazioni": 4420,
      "mu": 4421,
      "esclusivamente": 4422,
      "approvata": 4423,
      "aprile": 4424,
      "recentemente": 4425,
      "serio": 4426,
      "tecnica": 4427,
      "individuare": 4428,
      "tenendo": 4429,
      "potremmo": 4430,
      "genera": 4431,
      "svezia": 4432,
      "ottimo": 4433,
      "benefici": 4434,
      "fattore": 4435,
      "elettorale": 4436,
      "superiore": 4437,
      "sap": 4438,
      "gro": 4439,
      "medic": 4440,
      "contrad": 4441,
      "previste": 4442,
      "##zzando": 4443,
      "compiti": 4444,
      "1998": 4445,
      "dogan": 4446,
      "assunto": 4447,
      "differenza": 4448,
      "trarre": 4449,
      "commissioni": 4450,
      "future": 4451,
      "bos": 4452,
      "##lla": 4453,
      "coerenza": 4454,
      "##dicare": 4455,
      "##gresso": 4456,
      "intendiamo": 4457,
      "verificare": 4458,
      "bulgaria": 4459,
      "buone": 4460,
      "balcani": 4461,
      "##ersi": 4462,
      "compagni": 4463,
      "##mes": 4464,
      "firma": 4465,
      "ritardo": 4466,
      "studi": 4467,
      "dinanzi": 4468,
      "impressione": 4469,
      "code": 4470,
      "espor": 4471,
      "palestinese": 4472,
      "riconosciuto": 4473,
      "sufficienti": 4474,
      "##ita": 4475,
      "contribuito": 4476,
      "secolo": 4477,
      "cercando": 4478,
      "epo": 4479,
      "rive": 4480,
      "unicamente": 4481,
      "congiunta": 4482,
      "tribunale": 4483,
      "concreto": 4484,
      "governa": 4485,
      "agevo": 4486,
      "consentito": 4487,
      "continui": 4488,
      "sera": 4489,
      "##messa": 4490,
      "alta": 4491,
      "».": 4492,
      "proposti": 4493,
      "timo": 4494,
      "profon": 4495,
      "##terebbe": 4496,
      "rido": 4497,
      "##dra": 4498,
      "immigrati": 4499,
      "permesso": 4500,
      "perfettamente": 4501,
      "sinda": 4502,
      "##rebbero": 4503,
      "sugg": 4504,
      "limitare": 4505,
      "avrebbero": 4506,
      "richiesto": 4507,
      "##cro": 4508,
      "##ppe": 4509,
      "##cato": 4510,
      "socialista": 4511,
      "100": 4512,
      "prevenire": 4513,
      "naturale": 4514,
      "prepara": 4515,
      "##orsi": 4516,
      "ovvio": 4517,
      "avremmo": 4518,
      "offerta": 4519,
      "taluni": 4520,
      "epoca": 4521,
      "##dum": 4522,
      "controllare": 4523,
      "flo": 4524,
      "##gioni": 4525,
      "dimensioni": 4526,
      "ingiu": 4527,
      "resti": 4528,
      "soddisfare": 4529,
      "vigilanza": 4530,
      "compli": 4531,
      "oratori": 4532,
      "riguardanti": 4533,
      "eppure": 4534,
      "dubbi": 4535,
      "integ": 4536,
      "sovrani": 4537,
      "israel": 4538,
      "comportamento": 4539,
      "codice": 4540,
      "##cisione": 4541,
      "adeguate": 4542,
      "igno": 4543,
      "insuffici": 4544,
      "riflettere": 4545,
      "operare": 4546,
      "##tito": 4547,
      "##sburgo": 4548,
      "avranno": 4549,
      "##son": 4550,
      "mantenimento": 4551,
      "aggior": 4552,
      "volto": 4553,
      "sentire": 4554,
      "speriamo": 4555,
      "introdu": 4556,
      "coinvolgimento": 4557,
      "facciamo": 4558,
      "produrre": 4559,
      "sostengo": 4560,
      "illegale": 4561,
      "consapevoli": 4562,
      "visita": 4563,
      "distribuzione": 4564,
      "pac": 4565,
      "prescindere": 4566,
      "interessante": 4567,
      "prime": 4568,
      "veda": 4569,
      "##iscano": 4570,
      "##ficati": 4571,
      "affida": 4572,
      "geor": 4573,
      "tagli": 4574,
      "esecu": 4575,
      "velo": 4576,
      "saremo": 4577,
      "aerop": 4578,
      "enormi": 4579,
      "dedica": 4580,
      "##ppia": 4581,
      "sinc": 4582,
      "alimenti": 4583,
      "agricoli": 4584,
      "sensibili": 4585,
      "perse": 4586,
      "proseguire": 4587,
      "larga": 4588,
      "casa": 4589,
      "processi": 4590,
      "concernente": 4591,
      "conformità": 4592,
      "considerazioni": 4593,
      "bielorussia": 4594,
      "approvvigionamento": 4595,
      "##vendo": 4596,
      "determinazione": 4597,
      "formulare": 4598,
      "adatta": 4599,
      "##kistan": 4600,
      "accettabile": 4601,
      "compagnie": 4602,
      "##done": 4603,
      "denuncia": 4604,
      "##ssazione": 4605,
      "strasburgo": 4606,
      "ing": 4607,
      "sport": 4608,
      "##vale": 4609,
      "retrib": 4610,
      "qualcuno": 4611,
      "urb": 4612,
      "##nale": 4613,
      "##ssemb": 4614,
      "farà": 4615,
      "assumer": 4616,
      "esplici": 4617,
      "culturali": 4618,
      "normative": 4619,
      "lussemb": 4620,
      "verità": 4621,
      "##rli": 4622,
      "##verà": 4623,
      "allar": 4624,
      "concedere": 4625,
      "vul": 4626,
      "##lievo": 4627,
      "##car": 4628,
      "##tarsi": 4629,
      "bianco": 4630,
      "ristru": 4631,
      "compreso": 4632,
      "petrolio": 4633,
      "##dimento": 4634,
      "irri": 4635,
      "##liamo": 4636,
      "controver": 4637,
      "elevati": 4638,
      "trasparente": 4639,
      "pass": 4640,
      "suss": 4641,
      "##ttiamo": 4642,
      "fortu": 4643,
      "##ccato": 4644,
      "referen": 4645,
      "codecisione": 4646,
      "scala": 4647,
      "fornito": 4648,
      "orale": 4649,
      "trasferimento": 4650,
      "ch": 4651,
      "umano": 4652,
      "soddisfac": 4653,
      "appoggiare": 4654,
      "specialmente": 4655,
      "capo": 4656,
      "aiuta": 4657,
      "ciascuno": 4658,
      "corruzione": 4659,
      "unif": 4660,
      "sostanza": 4661,
      "propon": 4662,
      "##ppone": 4663,
      "insegna": 4664,
      "notevoli": 4665,
      "dero": 4666,
      "##ghere": 4667,
      "importo": 4668,
      "##iori": 4669,
      "solleci": 4670,
      "penali": 4671,
      "compia": 4672,
      "ultime": 4673,
      "eventuali": 4674,
      "rifugiati": 4675,
      "dina": 4676,
      "pescatori": 4677,
      "presidenti": 4678,
      "##ec": 4679,
      "##pol": 4680,
      "prosp": 4681,
      "chieder": 4682,
      "argomenti": 4683,
      "ripro": 4684,
      "volti": 4685,
      "decisionale": 4686,
      "vir": 4687,
      "vostro": 4688,
      "illustra": 4689,
      "supple": 4690,
      "risoluzioni": 4691,
      "##ghese": 4692,
      "pagamento": 4693,
      "palestinesi": 4694,
      "continuano": 4695,
      "02": 4696,
      "sopp": 4697,
      "tabacco": 4698,
      "etn": 4699,
      "febb": 4700,
      "imprenditori": 4701,
      "##nia": 4702,
      "svanta": 4703,
      "corretta": 4704,
      "merita": 4705,
      "intraprendere": 4706,
      "##nio": 4707,
      "costa": 4708,
      "britannico": 4709,
      "gradu": 4710,
      "usare": 4711,
      "anzia": 4712,
      "competente": 4713,
      "sovvenzioni": 4714,
      "molta": 4715,
      "1997": 4716,
      "autore": 4717,
      "##landesti": 4718,
      "esportazioni": 4719,
      "geogra": 4720,
      "##monia": 4721,
      "##erebbe": 4722,
      "privato": 4723,
      "sinistra": 4724,
      "clandesti": 4725,
      "cercato": 4726,
      "sanitaria": 4727,
      "clausola": 4728,
      "##vina": 4729,
      "perc": 4730,
      "ricostruzione": 4731,
      "contributi": 4732,
      "peti": 4733,
      "avver": 4734,
      "affrontato": 4735,
      "ara": 4736,
      "alternative": 4737,
      "organizzata": 4738,
      "accolto": 4739,
      "sessione": 4740,
      "render": 4741,
      "esterno": 4742,
      "persegui": 4743,
      "difen": 4744,
      "disastro": 4745,
      "pagare": 4746,
      "trovo": 4747,
      "emergenza": 4748,
      "cos": 4749,
      "versione": 4750,
      "##mino": 4751,
      "univers": 4752,
      "transizione": 4753,
      "seguenti": 4754,
      "difficili": 4755,
      "stretta": 4756,
      "profughi": 4757,
      "terza": 4758,
      "##vra": 4759,
      "permetta": 4760,
      "##gnare": 4761,
      "uguaglianza": 4762,
      "dramma": 4763,
      "23": 4764,
      "##ciato": 4765,
      "2013": 4766,
      "legale": 4767,
      "status": 4768,
      "dignità": 4769,
      "##landia": 4770,
      "riflessione": 4771,
      "##ttuale": 4772,
      "##diti": 4773,
      "alleva": 4774,
      "legati": 4775,
      "principalmente": 4776,
      "monitoraggio": 4777,
      "svolta": 4778,
      "giunto": 4779,
      "etichettatura": 4780,
      "indubb": 4781,
      "##talmente": 4782,
      "appi": 4783,
      "lasciare": 4784,
      "fallimento": 4785,
      "caratter": 4786,
      "##ddove": 4787,
      "laddove": 4788,
      "decen": 4789,
      "stabilito": 4790,
      "gene": 4791,
      "adeguamento": 4792,
      "continuerà": 4793,
      "lic": 4794,
      "privile": 4795,
      "coltiva": 4796,
      "vedasi": 4797,
      "esterna": 4798,
      "disto": 4799,
      "edu": 4800,
      "##ela": 4801,
      "lati": 4802,
      "importazioni": 4803,
      "temporane": 4804,
      "mono": 4805,
      "manifesta": 4806,
      "cion": 4807,
      "identità": 4808,
      "favori": 4809,
      "avviato": 4810,
      "##tr": 4811,
      "rom": 4812,
      "##cazione": 4813,
      "vorremmo": 4814,
      "derivanti": 4815,
      "appieno": 4816,
      "deli": 4817,
      "tari": 4818,
      "durata": 4819,
      "accre": 4820,
      "##nel": 4821,
      "solamente": 4822,
      "ombra": 4823,
      "bra": 4824,
      "lieta": 4825,
      "significato": 4826,
      "rurali": 4827,
      "suggeri": 4828,
      "seriamente": 4829,
      "##landesi": 4830,
      "definito": 4831,
      "sfruttare": 4832,
      "rifiuta": 4833,
      "pt": 4834,
      "proc": 4835,
      "##gati": 4836,
      "personali": 4837,
      "investimento": 4838,
      "gestire": 4839,
      "tardi": 4840,
      "defin": 4841,
      "merid": 4842,
      "core": 4843,
      "recu": 4844,
      "tariff": 4845,
      "ciascun": 4846,
      "##raio": 4847,
      "strategie": 4848,
      "fortuna": 4849,
      "alleanza": 4850,
      "finali": 4851,
      "prodi": 4852,
      "##scono": 4853,
      "##nera": 4854,
      "febbraio": 4855,
      "esclusione": 4856,
      "ceca": 4857,
      "ong": 4858,
      "##erato": 4859,
      "attesa": 4860,
      "quarto": 4861,
      "##econom": 4862,
      "mette": 4863,
      "##ccare": 4864,
      "pilastro": 4865,
      "vulnera": 4866,
      "riscon": 4867,
      "##lando": 4868,
      "referendum": 4869,
      "competenti": 4870,
      "##anistan": 4871,
      "ispe": 4872,
      "stia": 4873,
      "##nance": 4874,
      "indubbiamente": 4875,
      "logica": 4876,
      "salvaguardia": 4877,
      "imposte": 4878,
      "governance": 4879,
      "sorta": 4880,
      "richiamare": 4881,
      "dà": 4882,
      "razz": 4883,
      "vecchi": 4884,
      "orientamento": 4885,
      "assi": 4886,
      "22": 4887,
      "negoziato": 4888,
      "##centi": 4889,
      "ramma": 4890,
      "agricole": 4891,
      "citare": 4892,
      "bir": 4893,
      "utilizzati": 4894,
      "includere": 4895,
      "convergenza": 4896,
      "georgia": 4897,
      "##yo": 4898,
      "giuridici": 4899,
      "svedese": 4900,
      "beneficio": 4901,
      "dico": 4902,
      "radic": 4903,
      "confi": 4904,
      "##torie": 4905,
      "ecu": 4906,
      "errori": 4907,
      "apprezza": 4908,
      "accento": 4909,
      "discorso": 4910,
      "##sla": 4911,
      "perdere": 4912,
      "evidentemente": 4913,
      "cosci": 4914,
      "coinvolti": 4915,
      "##llo": 4916,
      "perdita": 4917,
      "24": 4918,
      "aspettative": 4919,
      "vivere": 4920,
      "investire": 4921,
      "tanti": 4922,
      "avviene": 4923,
      "##erità": 4924,
      "aprire": 4925,
      "serve": 4926,
      "dispone": 4927,
      "inade": 4928,
      "democratiche": 4929,
      "1996": 4930,
      "sino": 4931,
      "radio": 4932,
      "auten": 4933,
      "##pu": 4934,
      "climatici": 4935,
      "dol": 4936,
      "miglioramenti": 4937,
      "occidentale": 4938,
      "operato": 4939,
      "##tudine": 4940,
      "incen": 4941,
      "seguente": 4942,
      "lista": 4943,
      "accompagna": 4944,
      "indicato": 4945,
      "slova": 4946,
      "contribui": 4947,
      "##dimeno": 4948,
      "calo": 4949,
      "raggiungimento": 4950,
      "aperta": 4951,
      "eliminazione": 4952,
      "unghere": 4953,
      "avevano": 4954,
      "occhi": 4955,
      "sovranità": 4956,
      "esempi": 4957,
      "arrivare": 4958,
      "##riamente": 4959,
      "appal": 4960,
      "collaborare": 4961,
      "sorve": 4962,
      "##van": 4963,
      "americani": 4964,
      "semplificazione": 4965,
      "concreta": 4966,
      "comprende": 4967,
      "##istitu": 4968,
      "pazienti": 4969,
      "confer": 4970,
      "niente": 4971,
      "cogliere": 4972,
      "figli": 4973,
      "jo": 4974,
      "voti": 4975,
      "desiderio": 4976,
      "certezza": 4977,
      "energetiche": 4978,
      "97": 4979,
      "scena": 4980,
      "occasioni": 4981,
      "umane": 4982,
      "fissare": 4983,
      "afghanistan": 4984,
      "intrapre": 4985,
      "globali": 4986,
      "...": 4987,
      "centi": 4988,
      "umanitari": 4989,
      "trattare": 4990,
      "80": 4991,
      "regimi": 4992,
      "funzioni": 4993,
      "sostenibilità": 4994,
      "frequ": 4995,
      "riusciremo": 4996,
      "concessione": 4997,
      "ripri": 4998,
      "98": 4999,
      "fabb": 5000,
      "contribuenti": 5001,
      "prestare": 5002,
      "isla": 5003,
      "futuri": 5004,
      "omo": 5005,
      "interistitu": 5006,
      "##dui": 5007,
      "amici": 5008,
      "istituzionali": 5009,
      "##iace": 5010,
      "cel": 5011,
      "prete": 5012,
      "##ad": 5013,
      "dona": 5014,
      "##cati": 5015,
      "alternativa": 5016,
      "notare": 5017,
      "riferi": 5018,
      "##bole": 5019,
      "dipendenti": 5020,
      "rafforz": 5021,
      "rappresentato": 5022,
      "ribadis": 5023,
      "chius": 5024,
      "##ciamo": 5025,
      "indipendenti": 5026,
      "accaduto": 5027,
      "##ugo": 5028,
      "incer": 5029,
      "statistiche": 5030,
      "debole": 5031,
      "effettuare": 5032,
      "##ugosla": 5033,
      "riuscire": 5034,
      "vada": 5035,
      "sopravvi": 5036,
      "azienda": 5037,
      "tecnico": 5038,
      "60": 5039,
      "##cali": 5040,
      "disponiamo": 5041,
      "##vera": 5042,
      "creato": 5043,
      "contrastare": 5044,
      "monetari": 5045,
      "inclusione": 5046,
      "dallo": 5047,
      "contatto": 5048,
      "tendenza": 5049,
      "intelli": 5050,
      "repre": 5051,
      "materie": 5052,
      "campi": 5053,
      "fatta": 5054,
      "determinati": 5055,
      "percentuale": 5056,
      "ripercu": 5057,
      "dimostrano": 5058,
      "impianti": 5059,
      "ugu": 5060,
      "adeguatamente": 5061,
      "calenda": 5062,
      "##fia": 5063,
      "legislative": 5064,
      "coper": 5065,
      "oratore": 5066,
      "strategico": 5067,
      "quota": 5068,
      "quell": 5069,
      "conservazione": 5070,
      "##istenza": 5071,
      "diffusione": 5072,
      "##tante": 5073,
      "mattina": 5074,
      "contenute": 5075,
      "esistente": 5076,
      "totalmente": 5077,
      "usci": 5078,
      "preca": 5079,
      "##dibile": 5080,
      "##iclo": 5081,
      "isola": 5082,
      "bilaterali": 5083,
      "citato": 5084,
      "patrimonio": 5085,
      "distor": 5086,
      "##perare": 5087,
      "restrizioni": 5088,
      "##utiamo": 5089,
      "iniziale": 5090,
      "scegliere": 5091,
      "##inali": 5092,
      "avvio": 5093,
      "negativo": 5094,
      "be": 5095,
      "##arne": 5096,
      "toller": 5097,
      "##sura": 5098,
      "rappresentare": 5099,
      "pola": 5100,
      "rilievo": 5101,
      "sollevato": 5102,
      "ampiamente": 5103,
      "costruttivo": 5104,
      "##sazione": 5105,
      "##vita": 5106,
      "espresse": 5107,
      "valida": 5108,
      "tuttora": 5109,
      "energie": 5110,
      "vitale": 5111,
      "pubblicità": 5112,
      "a5": 5113,
      "legg": 5114,
      "##dre": 5115,
      "prezio": 5116,
      "interpretazione": 5117,
      "parliamo": 5118,
      "estero": 5119,
      "##ghen": 5120,
      "peso": 5121,
      "anzitutto": 5122,
      "##teria": 5123,
      "dibattiti": 5124,
      "ripercussioni": 5125,
      "##enaghen": 5126,
      "egi": 5127,
      "scanda": 5128,
      "lavorato": 5129,
      "##zzano": 5130,
      "precedenza": 5131,
      "rapido": 5132,
      "copenaghen": 5133,
      "intesa": 5134,
      "nutri": 5135,
      "##ho": 5136,
      "ostaco": 5137,
      "impostazione": 5138,
      "soddisfa": 5139,
      "eventuale": 5140,
      "##demo": 5141,
      "particolari": 5142,
      "reagi": 5143,
      "contratti": 5144,
      "##telle": 5145,
      "discutendo": 5146,
      "intenzioni": 5147,
      "##inanza": 5148,
      "##miche": 5149,
      "attribu": 5150,
      "contare": 5151,
      "strani": 5152,
      "effettiva": 5153,
      "abolizione": 5154,
      "origina": 5155,
      "movimento": 5156,
      "partecipato": 5157,
      "facol": 5158,
      "finanze": 5159,
      "oli": 5160,
      "rinuncia": 5161,
      "insistere": 5162,
      "voler": 5163,
      "tassi": 5164,
      "ucc": 5165,
      "esportazione": 5166,
      "##azia": 5167,
      "minima": 5168,
      "chiusura": 5169,
      "oneri": 5170,
      "##gnato": 5171,
      "equo": 5172,
      "croazia": 5173,
      "presuppo": 5174,
      "riparti": 5175,
      "credito": 5176,
      "valido": 5177,
      "subi": 5178,
      "cominciare": 5179,
      "##sare": 5180,
      "compati": 5181,
      "debi": 5182,
      "##naia": 5183,
      "recepi": 5184,
      "sanitari": 5185,
      "chiunque": 5186,
      "centinaia": 5187,
      "##arla": 5188,
      "inserire": 5189,
      "malattia": 5190,
      "svolge": 5191,
      "rilascia": 5192,
      "perseguire": 5193,
      "attivo": 5194,
      "sufficientemente": 5195,
      "##vando": 5196,
      "rein": 5197,
      "accettato": 5198,
      "tun": 5199,
      "##rendo": 5200,
      "scientifica": 5201,
      "reciproca": 5202,
      "elettori": 5203,
      "198": 5204,
      "transito": 5205,
      "consentirà": 5206,
      "rinvia": 5207,
      "incremento": 5208,
      "fermamente": 5209,
      "entità": 5210,
      "terrà": 5211,
      "03": 5212,
      "domin": 5213,
      "inevita": 5214,
      "attivamente": 5215,
      "ricorrere": 5216,
      "cura": 5217,
      "##nze": 5218,
      "sessuale": 5219,
      "##tuali": 5220,
      "giuridiche": 5221,
      "considerata": 5222,
      "compon": 5223,
      "dicendo": 5224,
      "rigi": 5225,
      "ritardi": 5226,
      "epi": 5227,
      "davanti": 5228,
      "spiegare": 5229,
      "accogli": 5230,
      "cifre": 5231,
      "cau": 5232,
      "aerei": 5233,
      "malgrado": 5234,
      "calendario": 5235,
      "pregiu": 5236,
      "utilizzato": 5237,
      "zu": 5238,
      "prigioni": 5239,
      "##democra": 5240,
      "autorizzazione": 5241,
      "introdo": 5242,
      "carbon": 5243,
      "soddisfacente": 5244,
      "##golo": 5245,
      "##muni": 5246,
      "esperienze": 5247,
      "medicinali": 5248,
      "##we": 5249,
      "dovesse": 5250,
      "contrari": 5251,
      "##busti": 5252,
      "burocrazia": 5253,
      "preventi": 5254,
      "diventi": 5255,
      "terra": 5256,
      "aggra": 5257,
      "reda": 5258,
      "ascoltato": 5259,
      "setten": 5260,
      "frodi": 5261,
      "impro": 5262,
      "funziona": 5263,
      "co2": 5264,
      "tecnici": 5265,
      "avvenuto": 5266,
      "##ua": 5267,
      "##gnazione": 5268,
      "categoria": 5269,
      "ricche": 5270,
      "medesi": 5271,
      "##quanto": 5272,
      "riunioni": 5273,
      "territoriale": 5274,
      "adoper": 5275,
      "basato": 5276,
      "male": 5277,
      "##miamo": 5278,
      "##gliata": 5279,
      "comprensione": 5280,
      "disciplina": 5281,
      "ciononostante": 5282,
      "##nazionali": 5283,
      "formulazione": 5284,
      "inferiore": 5285,
      "abusi": 5286,
      "trage": 5287,
      "alquanto": 5288,
      "avrei": 5289,
      "indeboli": 5290,
      "pse": 5291,
      "##valu": 5292,
      "indire": 5293,
      "riconosce": 5294,
      "sbagli": 5295,
      "concluso": 5296,
      "schi": 5297,
      "digi": 5298,
      "occidentali": 5299,
      "crediamo": 5300,
      "capitolo": 5301,
      "riguardante": 5302,
      "abitanti": 5303,
      "##uso": 5304,
      "criminali": 5305,
      "incomp": 5306,
      "##ttempo": 5307,
      "centri": 5308,
      "##date": 5309,
      "sosteniamo": 5310,
      "diretta": 5311,
      "interistituzionale": 5312,
      "rappresenti": 5313,
      "frattempo": 5314,
      "destinato": 5315,
      "prove": 5316,
      "interroga": 5317,
      "essenzialmente": 5318,
      "perso": 5319,
      "equilibrata": 5320,
      "esprimer": 5321,
      "impegnati": 5322,
      "geni": 5323,
      "intelle": 5324,
      "brevemente": 5325,
      "riveste": 5326,
      "##tivamente": 5327,
      "scomp": 5328,
      "som": 5329,
      "quindici": 5330,
      "meridionale": 5331,
      "estensione": 5332,
      "inseri": 5333,
      "riuscita": 5334,
      "iva": 5335,
      "crimini": 5336,
      "diretti": 5337,
      "trovato": 5338,
      "contatti": 5339,
      "permetter": 5340,
      "rime": 5341,
      "avendo": 5342,
      "inchi": 5343,
      "pil": 5344,
      "##niten": 5345,
      "settentr": 5346,
      "sostanzialmente": 5347,
      "fortemente": 5348,
      "statuniten": 5349,
      "articoli": 5350,
      "antici": 5351,
      "estendere": 5352,
      "##ds": 5353,
      "test": 5354,
      "##deranno": 5355,
      "capito": 5356,
      "rinno": 5357,
      "stabilisce": 5358,
      "serbia": 5359,
      "guardare": 5360,
      "##urato": 5361,
      "elaborato": 5362,
      "##tturazione": 5363,
      "##del": 5364,
      "##rente": 5365,
      "##ichiamo": 5366,
      "barri": 5367,
      "disabili": 5368,
      "reazione": 5369,
      "guada": 5370,
      "##mismo": 5371,
      "combusti": 5372,
      "limitato": 5373,
      "rivolgo": 5374,
      "##arle": 5375,
      "este": 5376,
      "benven": 5377,
      "bosnia": 5378,
      "nl": 5379,
      "giove": 5380,
      "rivedere": 5381,
      "##tagna": 5382,
      "wa": 5383,
      "avevamo": 5384,
      "##ssico": 5385,
      "adeguati": 5386,
      "nasc": 5387,
      "tradu": 5388,
      "impegnarsi": 5389,
      "moderni": 5390,
      "profondamente": 5391,
      "##dute": 5392,
      "##feriche": 5393,
      "petizioni": 5394,
      "veste": 5395,
      "##venza": 5396,
      "accusa": 5397,
      "tipi": 5398,
      "pertin": 5399,
      "utenti": 5400,
      "##peri": 5401,
      "dietro": 5402,
      "tiene": 5403,
      "tedesco": 5404,
      "esser": 5405,
      "anziani": 5406,
      "avvenire": 5407,
      "scuole": 5408,
      "droga": 5409,
      "impedis": 5410,
      "##pli": 5411,
      "sanno": 5412,
      "##ressione": 5413,
      "alti": 5414,
      "puli": 5415,
      "legate": 5416,
      "prossime": 5417,
      "##cente": 5418,
      "##mentazioni": 5419,
      "trasferi": 5420,
      "decisamente": 5421,
      "commenti": 5422,
      "impone": 5423,
      "giovedì": 5424,
      "##sibile": 5425,
      "compresi": 5426,
      "europol": 5427,
      "faccio": 5428,
      "distruzione": 5429,
      "demogra": 5430,
      "##yoto": 5431,
      "##gimi": 5432,
      "rilevare": 5433,
      "500": 5434,
      "##dt": 5435,
      "##comun": 5436,
      "spre": 5437,
      "determinate": 5438,
      "##il": 5439,
      "rifiuto": 5440,
      "conformemente": 5441,
      "96": 5442,
      "aspi": 5443,
      "condotto": 5444,
      "lussemburgo": 5445,
      "##mici": 5446,
      "convinzione": 5447,
      "##tlan": 5448,
      "##ardo": 5449,
      "ignora": 5450,
      "##ondere": 5451,
      "disposti": 5452,
      "incidente": 5453,
      "##tera": 5454,
      "venti": 5455,
      "passaggio": 5456,
      "poche": 5457,
      "vasta": 5458,
      "attiene": 5459,
      "raccolta": 5460,
      "##ice": 5461,
      "sostanziale": 5462,
      "strade": 5463,
      "caratteristiche": 5464,
      "nondimeno": 5465,
      "orario": 5466,
      "rivolgere": 5467,
      "danne": 5468,
      "apportare": 5469,
      "fornisce": 5470,
      "##eme": 5471,
      "##strare": 5472,
      "indiri": 5473,
      "tessi": 5474,
      "ritro": 5475,
      "temo": 5476,
      "cristiani": 5477,
      "ispi": 5478,
      "francesi": 5479,
      "90": 5480,
      "vedo": 5481,
      "consis": 5482,
      "sudde": 5483,
      "##chino": 5484,
      "##ner": 5485,
      "##anche": 5486,
      "determinato": 5487,
      "compresa": 5488,
      "auguriamo": 5489,
      "industrie": 5490,
      "classi": 5491,
      "##geria": 5492,
      "vincolante": 5493,
      "-,": 5494,
      "sospe": 5495,
      "restare": 5496,
      "materiale": 5497,
      "lacun": 5498,
      "assur": 5499,
      "affermazione": 5500,
      "portoghese": 5501,
      "sorveglianza": 5502,
      "maa": 5503,
      "caus": 5504,
      "##mico": 5505,
      "##scio": 5506,
      "contemp": 5507,
      "##laf": 5508,
      "tedesca": 5509,
      "eccezione": 5510,
      "pensi": 5511,
      "ottica": 5512,
      "minoranza": 5513,
      "perce": 5514,
      "case": 5515,
      "dispa": 5516,
      "1995": 5517,
      "##quilib": 5518,
      "ricic": 5519,
      "scelte": 5520,
      "onore": 5521,
      "regis": 5522,
      "maro": 5523,
      "ale": 5524,
      "pakistan": 5525,
      "tornare": 5526,
      "disponibile": 5527,
      "pom": 5528,
      "##zionalità": 5529,
      "kyoto": 5530,
      "universale": 5531,
      "piccolo": 5532,
      "ufficiale": 5533,
      "prosperità": 5534,
      "diva": 5535,
      "latte": 5536,
      "##etro": 5537,
      "reati": 5538,
      "colpito": 5539,
      "##porre": 5540,
      "turco": 5541,
      "assieme": 5542,
      "signo": 5543,
      "avevo": 5544,
      "attacchi": 5545,
      "finché": 5546,
      "complica": 5547,
      "biolo": 5548,
      "31": 5549,
      "lottare": 5550,
      "sembrano": 5551,
      "aeree": 5552,
      "mus": 5553,
      "##talità": 5554,
      "strutturale": 5555,
      "finlandia": 5556,
      "costantemente": 5557,
      "abbandon": 5558,
      "necessariamente": 5559,
      "ammettere": 5560,
      "tengo": 5561,
      "auspic": 5562,
      "concernenti": 5563,
      "##marmi": 5564,
      "contemporane": 5565,
      "neanche": 5566,
      "nomin": 5567,
      "29": 5568,
      "telecomun": 5569,
      "##riati": 5570,
      "organizzare": 5571,
      "nizza": 5572,
      "tonnel": 5573,
      "colp": 5574,
      "esauri": 5575,
      "chiedono": 5576,
      "ritorno": 5577,
      "sanci": 5578,
      "costituito": 5579,
      "salari": 5580,
      "attentamente": 5581,
      "aderire": 5582,
      "cosiddetto": 5583,
      "sicuri": 5584,
      "valutazioni": 5585,
      "preme": 5586,
      "equilibrato": 5587,
      "transatlan": 5588,
      "bro": 5589,
      "coinvolgere": 5590,
      "##sen": 5591,
      "ingresso": 5592,
      "informare": 5593,
      "26": 5594,
      "##marsi": 5595,
      "concesso": 5596,
      "studia": 5597,
      "##gersi": 5598,
      "cambio": 5599,
      "razzismo": 5600,
      "facoltà": 5601,
      "deline": 5602,
      "brevi": 5603,
      "##ong": 5604,
      "organo": 5605,
      "storica": 5606,
      "cosiddetta": 5607,
      "familiare": 5608,
      "aumen": 5609,
      "tornata": 5610,
      "##finanzia": 5611,
      "##cht": 5612,
      "cittadinanza": 5613,
      "vicinato": 5614,
      "pronti": 5615,
      "eccetera": 5616,
      "riesa": 5617,
      "verdi": 5618,
      "integrare": 5619,
      "corea": 5620,
      "##zzazioni": 5621,
      "consultazioni": 5622,
      "correttamente": 5623,
      "positivamente": 5624,
      "ambizioso": 5625,
      "##laggio": 5626,
      "menzionato": 5627,
      "pareri": 5628,
      "tassa": 5629,
      "merco": 5630,
      "##meni": 5631,
      "»,": 5632,
      "riuscito": 5633,
      "strettamente": 5634,
      "##arli": 5635,
      "materiali": 5636,
      "##trici": 5637,
      "parall": 5638,
      "conoscere": 5639,
      "##istici": 5640,
      "partenza": 5641,
      "ultra": 5642,
      "margine": 5643,
      "28": 5644,
      "tru": 5645,
      "auspico": 5646,
      "israelia": 5647,
      "quotidiana": 5648,
      "##pere": 5649,
      "2011": 5650,
      "sorpren": 5651,
      "giornata": 5652,
      "indietro": 5653,
      "olandese": 5654,
      "##erazione": 5655,
      "applicato": 5656,
      "metter": 5657,
      "litu": 5658,
      "precisare": 5659,
      "mondiali": 5660,
      "35": 5661,
      "##pero": 5662,
      "specu": 5663,
      "##mpere": 5664,
      "pluri": 5665,
      "ferroviario": 5666,
      "accelerare": 5667,
      "##um": 5668,
      "##inanti": 5669,
      "defici": 5670,
      "obie": 5671,
      "pomeri": 5672,
      "inviare": 5673,
      "ristrutturazione": 5674,
      "##ulso": 5675,
      "esorto": 5676,
      "osser": 5677,
      "praticamente": 5678,
      "##ficate": 5679,
      "scadenza": 5680,
      "lingu": 5681,
      "coord": 5682,
      "dipendenza": 5683,
      "preli": 5684,
      "considero": 5685,
      "condividiamo": 5686,
      "disparità": 5687,
      "##ortato": 5688,
      "##giamo": 5689,
      "rilevanza": 5690,
      "ralleg": 5691,
      "scelto": 5692,
      "coscienza": 5693,
      "amministrative": 5694,
      "cancel": 5695,
      "prego": 5696,
      "ascoltare": 5697,
      "70": 5698,
      "composizione": 5699,
      "carenze": 5700,
      "vicenda": 5701,
      "minacce": 5702,
      "colpiti": 5703,
      "vendita": 5704,
      "rappresentanza": 5705,
      "provvedimento": 5706,
      "salvaguardare": 5707,
      "##loso": 5708,
      "ideolo": 5709,
      "associazioni": 5710,
      "a4": 5711,
      "##une": 5712,
      "esercito": 5713,
      "##mos": 5714,
      "sie": 5715,
      "consentitemi": 5716,
      "equa": 5717,
      "volontaria": 5718,
      "deno": 5719,
      "operazione": 5720,
      "reciproco": 5721,
      "##tusia": 5722,
      "nomina": 5723,
      "turno": 5724,
      "vulnerabili": 5725,
      "##tero": 5726,
      "arco": 5727,
      "##stanti": 5728,
      "normativo": 5729,
      "categorie": 5730,
      "pomeriggio": 5731,
      "dando": 5732,
      "ingle": 5733,
      "##lancio": 5734,
      "somma": 5735,
      "latina": 5736,
      "tutt": 5737,
      "richiedono": 5738,
      "ripetu": 5739,
      "esen": 5740,
      "##gheria": 5741,
      "indagini": 5742,
      "introdotto": 5743,
      "ungheria": 5744,
      "indicazioni": 5745,
      "settentrionale": 5746,
      "##cchio": 5747,
      "desideriamo": 5748,
      "belgio": 5749,
      "tenga": 5750,
      "funzionare": 5751,
      "zucch": 5752,
      "##cell": 5753,
      "prende": 5754,
      "restitu": 5755,
      "studenti": 5756,
      "risparmio": 5757,
      "deplorevole": 5758,
      "soffermarmi": 5759,
      "spagnola": 5760,
      "lavorando": 5761,
      "accedere": 5762,
      "ungherese": 5763,
      "vergo": 5764,
      "sentenza": 5765,
      "discriminazioni": 5766,
      "analoga": 5767,
      "disposto": 5768,
      "onere": 5769,
      "profilo": 5770,
      "benvenuto": 5771,
      "##ttino": 5772,
      "annun": 5773,
      "##lti": 5774,
      "trov": 5775,
      "segretario": 5776,
      "socio": 5777,
      "concord": 5778,
      "precisa": 5779,
      "perpe": 5780,
      "##erati": 5781,
      "piccola": 5782,
      "mace": 5783,
      "conoscenze": 5784,
      "giappone": 5785,
      "##ant": 5786,
      "negativi": 5787,
      "consigli": 5788,
      "prefi": 5789,
      "messi": 5790,
      "fem": 5791,
      "inden": 5792,
      "fel": 5793,
      "baltico": 5794,
      "auspicabile": 5795,
      "contribuirà": 5796,
      "entusia": 5797,
      "rientrano": 5798,
      "esterni": 5799,
      "costretti": 5800,
      "chiama": 5801,
      "ingiusti": 5802,
      "##ng": 5803,
      "transe": 5804,
      "buoni": 5805,
      "notevolmente": 5806,
      "inchiesta": 5807,
      "britannica": 5808,
      "annunciato": 5809,
      "intellettuale": 5810,
      "##cellona": 5811,
      "barcellona": 5812,
      "contribuisce": 5813,
      "zi": 5814,
      "appunto": 5815,
      "comb": 5816,
      "frode": 5817,
      "##lun": 5818,
      "flessibile": 5819,
      "priva": 5820,
      "serra": 5821,
      "catastrofe": 5822,
      "speri": 5823,
      "avveni": 5824,
      "pacifica": 5825,
      "britannici": 5826,
      "elevata": 5827,
      "respingere": 5828,
      "stradale": 5829,
      "barriere": 5830,
      "imposizione": 5831,
      "confe": 5832,
      "ribadito": 5833,
      "##dolo": 5834,
      "ritenuto": 5835,
      "dani": 5836,
      "condivide": 5837,
      "##mpagne": 5838,
      "traccia": 5839,
      "pensiamo": 5840,
      "indicare": 5841,
      "assunti": 5842,
      "telecomunicazioni": 5843,
      "##ir": 5844,
      "ammon": 5845,
      "virtù": 5846,
      "lavorano": 5847,
      "adottati": 5848,
      "credere": 5849,
      "colloqui": 5850,
      "rammarico": 5851,
      "occorrono": 5852,
      "##mann": 5853,
      "avanzata": 5854,
      "##ume": 5855,
      "vive": 5856,
      "\".": 5857,
      "singolo": 5858,
      "consolidamento": 5859,
      "##tizzazione": 5860,
      "minimi": 5861,
      "pensioni": 5862,
      "programmazione": 5863,
      "minuti": 5864,
      "viaggio": 5865,
      "università": 5866,
      "giudiziario": 5867,
      "umanità": 5868,
      "applicate": 5869,
      "cinese": 5870,
      "riscontra": 5871,
      "assistito": 5872,
      "segue": 5873,
      "marittima": 5874,
      "##erata": 5875,
      "completo": 5876,
      "evidenziato": 5877,
      "appalti": 5878,
      "incentivi": 5879,
      "ogn": 5880,
      "aria": 5881,
      "cong": 5882,
      "inva": 5883,
      "##tarci": 5884,
      "morale": 5885,
      "evidenza": 5886,
      "indagine": 5887,
      "permettetemi": 5888,
      "apprezzamento": 5889,
      "sb": 5890,
      "allegato": 5891,
      "convinta": 5892,
      "irach": 5893,
      "##granti": 5894,
      "strategica": 5895,
      "preparare": 5896,
      "transfrontaliera": 5897,
      "realizzato": 5898,
      "consideriamo": 5899,
      "continuo": 5900,
      "terreno": 5901,
      "bce": 5902,
      "sloven": 5903,
      "que": 5904,
      "applicata": 5905,
      "##entaglio": 5906,
      "##shi": 5907,
      "avanzate": 5908,
      "tradizionali": 5909,
      "sovra": 5910,
      "cuba": 5911,
      "##ggiamo": 5912,
      "socialisti": 5913,
      "esprime": 5914,
      "presi": 5915,
      "iniziato": 5916,
      "terroristi": 5917,
      "##visa": 5918,
      "lontan": 5919,
      "dovuta": 5920,
      "minuto": 5921,
      "apprezzo": 5922,
      "deboli": 5923,
      "pericolose": 5924,
      "avesse": 5925,
      "coinvolte": 5926,
      "concordato": 5927,
      "provo": 5928,
      "generazione": 5929,
      "tunis": 5930,
      "biodi": 5931,
      "sposta": 5932,
      "##ggono": 5933,
      "transeurope": 5934,
      "automa": 5935,
      "##lli": 5936,
      "##ontan": 5937,
      "cari": 5938,
      "##ennale": 5939,
      "##state": 5940,
      "inclusi": 5941,
      "seria": 5942,
      "deficit": 5943,
      "accer": 5944,
      "raccogliere": 5945,
      "tonnellate": 5946,
      "premio": 5947,
      "##ppa": 5948,
      "##veri": 5949,
      "immagine": 5950,
      "##zionato": 5951,
      "operano": 5952,
      "##stina": 5953,
      "##onomia": 5954,
      "tibe": 5955,
      "tempes": 5956,
      "eletti": 5957,
      "frontiera": 5958,
      "##hn": 5959,
      "aut": 5960,
      "segnatamente": 5961,
      "##uita": 5962,
      "##mendo": 5963,
      "normale": 5964,
      "considerati": 5965,
      "considerevole": 5966,
      "tragedia": 5967,
      "##chè": 5968,
      "##erenzia": 5969,
      "contrasto": 5970,
      "dettaglio": 5971,
      "campagne": 5972,
      "trasmettere": 5973,
      "arresto": 5974,
      "positive": 5975,
      "preciso": 5976,
      "attori": 5977,
      "##dizioni": 5978,
      "emerge": 5979,
      "wal": 5980,
      "inno": 5981,
      "storico": 5982,
      "organismo": 5983,
      "farmaci": 5984,
      "gali": 5985,
      "svolgono": 5986,
      "cammino": 5987,
      "isole": 5988,
      "):": 5989,
      "respinto": 5990,
      "assumersi": 5991,
      "garantisce": 5992,
      "catastrofi": 5993,
      "vuo": 5994,
      "##mor": 5995,
      "integrato": 5996,
      "offerto": 5997,
      "##glior": 5998,
      "miglior": 5999,
      "permetterà": 6000,
      "fede": 6001,
      "##marca": 6002,
      "scarsa": 6003,
      "grati": 6004,
      "animale": 6005,
      "profitti": 6006,
      "divario": 6007,
      "biodiversità": 6008,
      "itti": 6009,
      "timori": 6010,
      "religione": 6011,
      "redditi": 6012,
      "maced": 6013,
      "limitata": 6014,
      "gioca": 6015,
      "pericolosi": 6016,
      "integrata": 6017,
      "giudiziaria": 6018,
      "mic": 6019,
      "indipendentemente": 6020,
      "inn": 6021,
      "##veranno": 6022,
      "tito": 6023,
      "negoziale": 6024,
      "pla": 6025,
      "trasformazione": 6026,
      "esecutivo": 6027,
      "accessi": 6028,
      "problematica": 6029,
      "incapa": 6030,
      "muta": 6031,
      "osservare": 6032,
      "giunti": 6033,
      "autonomia": 6034,
      "ille": 6035,
      "tenuta": 6036,
      "periodi": 6037,
      "auspichiamo": 6038,
      "##more": 6039,
      "comunica": 6040,
      "tante": 6041,
      "sfu": 6042,
      "decisivo": 6043,
      "##ttore": 6044,
      "risposto": 6045,
      "impulso": 6046,
      "significativa": 6047,
      "causato": 6048,
      "distanza": 6049,
      "millen": 6050,
      "tecnologico": 6051,
      "##mentato": 6052,
      "legittimità": 6053,
      "convenzioni": 6054,
      "soddisfatto": 6055,
      "insufficiente": 6056,
      "avanzare": 6057,
      "migra": 6058,
      "prigionieri": 6059,
      "avia": 6060,
      "confermato": 6061,
      "spagnolo": 6062,
      "soddisfatti": 6063,
      "percorso": 6064,
      "##ramente": 6065,
      "##istico": 6066,
      "versa": 6067,
      "firmato": 6068,
      "destinate": 6069,
      "zucchero": 6070,
      "##mette": 6071,
      "incrementare": 6072,
      "ringraziamenti": 6073,
      "mozione": 6074,
      "invita": 6075,
      "sbagliato": 6076,
      "##arvi": 6077,
      "susci": 6078,
      "legali": 6079,
      "maastri": 6080,
      "esb": 6081,
      "incarica": 6082,
      "carbonio": 6083,
      "semplificare": 6084,
      "tentativi": 6085,
      "disoccupa": 6086,
      "affermazioni": 6087,
      "intensificare": 6088,
      "criterio": 6089,
      "disu": 6090,
      "complessa": 6091,
      "congratulazioni": 6092,
      "##uf": 6093,
      "danimarca": 6094,
      "approvati": 6095,
      "destra": 6096,
      "maastricht": 6097,
      "sviluppati": 6098,
      "morti": 6099,
      "tassazione": 6100,
      "scritte": 6101,
      "connessi": 6102,
      "ammissi": 6103,
      "successivamente": 6104,
      "venisse": 6105,
      "mancato": 6106,
      "##cidi": 6107,
      "origin": 6108,
      "discutiamo": 6109,
      "##erisce": 6110,
      "vede": 6111,
      "collegamento": 6112,
      "flussi": 6113,
      "costitui": 6114,
      "soglia": 6115,
      "##alle": 6116,
      "assass": 6117,
      "fissato": 6118,
      "##gene": 6119,
      "riprendere": 6120,
      "##cherà": 6121,
      "rivolta": 6122,
      "professionali": 6123,
      "inutile": 6124,
      "facilmente": 6125,
      "impegnata": 6126,
      "legittima": 6127,
      "privata": 6128,
      "faremo": 6129,
      "fatte": 6130,
      "affronta": 6131,
      "semplici": 6132,
      "condividere": 6133,
      "sollevare": 6134,
      "destinata": 6135,
      "rilevante": 6136,
      "costri": 6137,
      "consapevolezza": 6138,
      "agevolare": 6139,
      "femmini": 6140,
      "##cer": 6141,
      "into": 6142,
      "preserva": 6143,
      "decenni": 6144,
      "candidato": 6145,
      "russa": 6146,
      "capisco": 6147,
      "governative": 6148,
      "espan": 6149,
      "convincere": 6150,
      "stretto": 6151,
      "pronta": 6152,
      "aeroporti": 6153,
      "rivolto": 6154,
      "comunicazioni": 6155,
      "##eramente": 6156,
      "vacc": 6157,
      "ciclo": 6158,
      "stabile": 6159,
      "consolidare": 6160,
      "limita": 6161,
      "esprimo": 6162,
      "convinti": 6163,
      "cur": 6164,
      "scio": 6165,
      "sarei": 6166,
      "macro": 6167,
      "unanime": 6168,
      "generazioni": 6169,
      "colpe": 6170,
      "riciclaggio": 6171,
      "marocco": 6172,
      "formulate": 6173,
      "chiudere": 6174,
      "amministrativi": 6175,
      "berlino": 6176,
      "quegli": 6177,
      "colpite": 6178,
      "desiderano": 6179,
      "macedonia": 6180,
      "ove": 6181,
      "##ttato": 6182,
      "preoccupante": 6183,
      "prosegui": 6184,
      "voteremo": 6185,
      "attacco": 6186,
      "aliquo": 6187,
      "pretesto": 6188,
      "liberale": 6189,
      "foreste": 6190,
      "immagin": 6191,
      "hi": 6192,
      "efficacemente": 6193,
      "voglia": 6194,
      "evidenziare": 6195,
      "risie": 6196,
      "americano": 6197,
      "##gari": 6198,
      "##ski": 6199,
      "assistere": 6200,
      "farsi": 6201,
      "vincolanti": 6202,
      "batta": 6203,
      "rivolte": 6204,
      "##rrà": 6205,
      "negoziare": 6206,
      "oc": 6207,
      "leggere": 6208,
      "ridotto": 6209,
      "crede": 6210,
      "figura": 6211,
      "##dimenti": 6212,
      "ignorare": 6213,
      "poc": 6214,
      "ripeto": 6215,
      "immediato": 6216,
      "eccessivo": 6217,
      "##org": 6218,
      "richiedere": 6219,
      "prose": 6220,
      "teo": 6221,
      "ufficiali": 6222,
      "ripartizione": 6223,
      "confermare": 6224,
      "privilegia": 6225,
      "squilib": 6226,
      "silen": 6227,
      "vite": 6228,
      "social": 6229,
      "pesanti": 6230,
      "italiano": 6231,
      "ricchi": 6232,
      "lanciare": 6233,
      "notizia": 6234,
      "inadegua": 6235,
      "##tamento": 6236,
      "ribadisco": 6237,
      "apprendi": 6238,
      "genitori": 6239,
      "stock": 6240,
      "apprendimento": 6241,
      "##logia": 6242,
      "grato": 6243,
      "fornitura": 6244,
      "lacune": 6245,
      "contemporaneamente": 6246,
      "estra": 6247,
      "aids": 6248,
      "legislativi": 6249,
      "corrente": 6250,
      "eccessiva": 6251,
      "approfondita": 6252,
      "concen": 6253,
      "istituito": 6254,
      "belga": 6255,
      "definiti": 6256,
      "##buranti": 6257,
      "ipotesi": 6258,
      "##ttività": 6259,
      "##mas": 6260,
      "informato": 6261,
      "micro": 6262,
      "ep": 6263,
      "delu": 6264,
      "registrato": 6265,
      "piane": 6266,
      "autove": 6267,
      "risparmia": 6268,
      "sudan": 6269,
      "giornalisti": 6270,
      "##mono": 6271,
      "trattative": 6272,
      "sostituire": 6273,
      "organizzato": 6274,
      "##orrere": 6275,
      "istituto": 6276,
      "sospen": 6277,
      "##ttra": 6278,
      "esserci": 6279,
      "primavera": 6280,
      "reagire": 6281,
      "protezion": 6282,
      "competitiva": 6283,
      "##medi": 6284,
      "rispettivi": 6285,
      "marittimo": 6286,
      "04": 6287,
      "osservatori": 6288,
      "svolgimento": 6289,
      "velocità": 6290,
      "##bio": 6291,
      "rimb": 6292,
      "inflazione": 6293,
      "propongo": 6294,
      "silenzio": 6295,
      "##tene": 6296,
      "informati": 6297,
      "effettivo": 6298,
      "talune": 6299,
      "annuncio": 6300,
      "intendono": 6301,
      "delib": 6302,
      "posse": 6303,
      "##zzon": 6304,
      "zimba": 6305,
      "##hiamo": 6306,
      "tenuti": 6307,
      "italiana": 6308,
      "beneficiari": 6309,
      "doganali": 6310,
      "ognuno": 6311,
      "crimine": 6312,
      "spo": 6313,
      "##tec": 6314,
      "qualificata": 6315,
      "##chere": 6316,
      "immuni": 6317,
      "rinvio": 6318,
      "zimbab": 6319,
      "creando": 6320,
      "##sk": 6321,
      "rilevato": 6322,
      "promesse": 6323,
      "adempi": 6324,
      "esau": 6325,
      "analizzare": 6326,
      "tasse": 6327,
      "ovunque": 6328,
      "modelli": 6329,
      "emi": 6330,
      "pianeta": 6331,
      "dimostrazione": 6332,
      "irlandesi": 6333,
      "pianificazione": 6334,
      "hel": 6335,
      "##gando": 6336,
      "rub": 6337,
      "notizie": 6338,
      "doganale": 6339,
      "concludo": 6340,
      "##tun": 6341,
      "ringraziamento": 6342,
      "ditta": 6343,
      "garantendo": 6344,
      "aggi": 6345,
      "deva": 6346,
      "sottra": 6347,
      "madri": 6348,
      "retti": 6349,
      "greco": 6350,
      "continueremo": 6351,
      "attribuire": 6352,
      "gine": 6353,
      "tan": 6354,
      "orizzon": 6355,
      "minore": 6356,
      "##ziona": 6357,
      "pilo": 6358,
      "repressione": 6359,
      "zimbabwe": 6360,
      "##entemente": 6361,
      "graduale": 6362,
      "nero": 6363,
      "opportuna": 6364,
      "sostengono": 6365,
      "raggiunti": 6366,
      "riven": 6367,
      "##mestre": 6368,
      "liberamente": 6369,
      "private": 6370,
      "corpo": 6371,
      "riuni": 6372,
      "entrate": 6373,
      "ostacolo": 6374,
      "uniforme": 6375,
      "##ugoslavia": 6376,
      "accrescere": 6377,
      "millennio": 6378,
      "##su": 6379,
      "umanitario": 6380,
      "##parti": 6381,
      "geneticamente": 6382,
      "scientifico": 6383,
      "preval": 6384,
      "inviato": 6385,
      "segno": 6386,
      "revoca": 6387,
      "quinto": 6388,
      "emerso": 6389,
      "ja": 6390,
      "##namento": 6391,
      "gaza": 6392,
      "og": 6393,
      "compar": 6394,
      "schia": 6395,
      "aiu": 6396,
      "costituzionali": 6397,
      "ambiziosi": 6398,
      "ricer": 6399,
      "blocco": 6400,
      "atmos": 6401,
      "approfi": 6402,
      "rassic": 6403,
      "argomentazioni": 6404,
      "soggior": 6405,
      "fame": 6406,
      "ritengono": 6407,
      "predis": 6408,
      "scuo": 6409,
      "petroli": 6410,
      "dotazione": 6411,
      "giunta": 6412,
      "offerte": 6413,
      "mente": 6414,
      "commercializzazione": 6415,
      "inglese": 6416,
      "potenziali": 6417,
      "dollari": 6418,
      "incendi": 6419,
      "ginevra": 6420,
      "pru": 6421,
      "garantito": 6422,
      "istituti": 6423,
      "incontri": 6424,
      "flotta": 6425,
      "imbar": 6426,
      "severe": 6427,
      "importazione": 6428,
      "restano": 6429,
      "segnalare": 6430,
      "appropria": 6431,
      "socialdemocra": 6432,
      "xx": 6433,
      "soldi": 6434,
      "slovacchia": 6435,
      "conci": 6436,
      "svizz": 6437,
      "certe": 6438,
      "cinesi": 6439,
      "emissione": 6440,
      "ripetere": 6441,
      "intervenuti": 6442,
      "determinare": 6443,
      "reputo": 6444,
      "invitare": 6445,
      "bandi": 6446,
      "concentrarsi": 6447,
      "lieti": 6448,
      "rimar": 6449,
      "cecen": 6450,
      "clandestina": 6451,
      "ultraperi": 6452,
      "avvenimenti": 6453,
      "##sch": 6454,
      "perlo": 6455,
      "intento": 6456,
      "aspettiamo": 6457,
      "costrin": 6458,
      "concretamente": 6459,
      "mancata": 6460,
      "brasi": 6461,
      "arbi": 6462,
      "servono": 6463,
      "rafforzata": 6464,
      "ogm": 6465,
      "c5": 6466,
      "##ltà": 6467,
      "altamente": 6468,
      "preten": 6469,
      "mora": 6470,
      "sel": 6471,
      "gioven": 6472,
      "ricchezza": 6473,
      "legislatura": 6474,
      "repentaglio": 6475,
      "confine": 6476,
      "insedia": 6477,
      "indicatori": 6478,
      "trasformare": 6479,
      "disoccupati": 6480,
      "##50": 6481,
      "vivamente": 6482,
      "canada": 6483,
      "significativi": 6484,
      "bretagna": 6485,
      "acquisto": 6486,
      "##ek": 6487,
      "bur": 6488,
      "compiaccio": 6489,
      "espressi": 6490,
      "politicamente": 6491,
      "accoglie": 6492,
      "simbo": 6493,
      "##turi": 6494,
      "datori": 6495,
      "attirare": 6496,
      "vittima": 6497,
      "##cché": 6498,
      "diminuzione": 6499,
      "sovie": 6500,
      "cellu": 6501,
      "incertezza": 6502,
      "##armi": 6503,
      "lasciato": 6504,
      "##volo": 6505,
      "esplo": 6506,
      "face": 6507,
      "elettricità": 6508,
      "orgo": 6509,
      "problematiche": 6510,
      "tradizione": 6511,
      "b4": 6512,
      "infor": 6513,
      "radicale": 6514,
      "orgoglio": 6515,
      "fasi": 6516,
      "modificato": 6517,
      ")]": 6518,
      "##stato": 6519,
      "federale": 6520,
      "intermedia": 6521,
      "formale": 6522,
      "bei": 6523,
      "esegui": 6524,
      "aggre": 6525,
      "definita": 6526,
      "odierno": 6527,
      "poste": 6528,
      "differenzia": 6529,
      "andrebbe": 6530,
      "inutili": 6531,
      "ragion": 6532,
      "profession": 6533,
      "fissati": 6534,
      "birmania": 6535,
      "conclusi": 6536,
      "##prire": 6537,
      "perdite": 6538,
      "attendere": 6539,
      "signori": 6540,
      "soster": 6541,
      "massic": 6542,
      "immin": 6543,
      "foresta": 6544,
      "altrove": 6545,
      "luoghi": 6546,
      "potesse": 6547,
      "dichiarare": 6548,
      "accogliamo": 6549,
      "##por": 6550,
      "siff": 6551,
      "ottenuti": 6552,
      "b5": 6553,
      "esistere": 6554,
      "sanitario": 6555,
      "albania": 6556,
      "umanitaria": 6557,
      "occuparsi": 6558,
      "inserimento": 6559,
      "normali": 6560,
      "brevetti": 6561,
      "legami": 6562,
      "prestiti": 6563,
      "peri": 6564,
      "confusione": 6565,
      "previ": 6566,
      "segnali": 6567,
      "bon": 6568,
      "risarci": 6569,
      "marchio": 6570,
      "costruttiva": 6571,
      "implicazioni": 6572,
      "perpetra": 6573,
      "##rmente": 6574,
      "incentra": 6575,
      "gioventù": 6576,
      "unita": 6577,
      "meritano": 6578,
      "nazione": 6579,
      "sman": 6580,
      "memo": 6581,
      "mettendo": 6582,
      "negative": 6583,
      "beneficiare": 6584,
      "regolarmente": 6585,
      "99": 6586,
      "roma": 6587,
      "presenterà": 6588,
      "immunità": 6589,
      "##sciamo": 6590,
      "multinazionali": 6591,
      "sele": 6592,
      "amministrativa": 6593,
      "attre": 6594,
      "frutto": 6595,
      "abbandonare": 6596,
      "cure": 6597,
      "espon": 6598,
      "africani": 6599,
      "illegali": 6600,
      "provocato": 6601,
      "motivazione": 6602,
      "ipocri": 6603,
      "uccis": 6604,
      "lituania": 6605,
      "monetario": 6606,
      "scientifici": 6607,
      "paura": 6608,
      "ritiro": 6609,
      "riferisce": 6610,
      "rimangono": 6611,
      "navigazione": 6612,
      "ebbene": 6613,
      "##mis": 6614,
      "##rana": 6615,
      "cifra": 6616,
      "##inazione": 6617,
      "crediti": 6618,
      "uscire": 6619,
      "palese": 6620,
      "stimolare": 6621,
      "##yn": 6622,
      "inver": 6623,
      "rigore": 6624,
      "banane": 6625,
      "trasparenti": 6626,
      "rallegro": 6627,
      "trasmissione": 6628,
      "escludere": 6629,
      "rispettati": 6630,
      "coordinare": 6631,
      "transazioni": 6632,
      "espressamente": 6633,
      "tren": 6634,
      "##gma": 6635,
      "atlan": 6636,
      "chiamati": 6637,
      "utilizzate": 6638,
      "smantel": 6639,
      "indicazione": 6640,
      "##sponsa": 6641,
      "conosciamo": 6642,
      "ricorda": 6643,
      "nor": 6644,
      "comincia": 6645,
      "sinora": 6646,
      "ambizione": 6647,
      "assegna": 6648,
      "formulato": 6649,
      "##rei": 6650,
      "cee": 6651,
      "supplementari": 6652,
      "eri": 6653,
      "riconcili": 6654,
      "progredire": 6655,
      "cosiddetti": 6656,
      "democratizzazione": 6657,
      "immediata": 6658,
      "##duti": 6659,
      "distinzione": 6660,
      "donatori": 6661,
      "controversie": 6662,
      "##wa": 6663,
      "presie": 6664,
      "fondata": 6665,
      "presupposto": 6666,
      "complessivo": 6667,
      "debbono": 6668,
      "equival": 6669,
      "comunicare": 6670,
      "prevedono": 6671,
      "armonizzare": 6672,
      "eccessivamente": 6673,
      "volevo": 6674,
      "voci": 6675,
      "importi": 6676,
      "fisch": 6677,
      "?.": 6678,
      "scoper": 6679,
      "stabilizzazione": 6680,
      "ob": 6681,
      "stipu": 6682,
      "ripa": 6683,
      "##ppio": 6684,
      "1994": 6685,
      "giacché": 6686,
      "cofinanzia": 6687,
      "proli": 6688,
      "neu": 6689,
      "individui": 6690,
      "compensazione": 6691,
      "richiamo": 6692,
      "preoccupati": 6693,
      "quantita": 6694,
      "olaf": 6695,
      "##ley": 6696,
      "##lamento": 6697,
      "fornitori": 6698,
      "trasfor": 6699,
      "concittad": 6700,
      "incis": 6701,
      "esor": 6702,
      "prestazioni": 6703,
      "preliminare": 6704,
      "##tabili": 6705,
      "rendono": 6706,
      "scopi": 6707,
      "obbligatoria": 6708,
      "confronto": 6709,
      "rimedio": 6710,
      "pan": 6711,
      "ambizioni": 6712,
      "peschere": 6713,
      "sma": 6714,
      "cooperare": 6715,
      "##torno": 6716,
      "proponiamo": 6717,
      "vediamo": 6718,
      "ridotta": 6719,
      "camp": 6720,
      "##ranei": 6721,
      "alimentazione": 6722,
      "richiedenti": 6723,
      "cerchiamo": 6724,
      "compromessi": 6725,
      "licenzia": 6726,
      "collettiva": 6727,
      "chiedendo": 6728,
      "capace": 6729,
      "tortura": 6730,
      "guardia": 6731,
      "conosce": 6732,
      "urgenti": 6733,
      "congo": 6734,
      "educazione": 6735,
      "scuola": 6736,
      "he": 6737,
      "prolun": 6738,
      "pensiero": 6739,
      "cito": 6740,
      "sfera": 6741,
      "##veremo": 6742,
      "contraria": 6743,
      "dedicato": 6744,
      "qualifiche": 6745,
      "deriva": 6746,
      "discre": 6747,
      "conquis": 6748,
      "magari": 6749,
      "riflette": 6750,
      "deroga": 6751,
      "vor": 6752,
      "neo": 6753,
      "profitto": 6754,
      "concittadini": 6755,
      "sle": 6756,
      "##gon": 6757,
      "ferme": 6758,
      "minime": 6759,
      "scritto": 6760,
      "altezza": 6761,
      "battaglia": 6762,
      "redi": 6763,
      "infrastruttura": 6764,
      "genero": 6765,
      "presentano": 6766,
      "pesce": 6767,
      "osservato": 6768,
      "scienza": 6769,
      "svantaggia": 6770,
      "##drà": 6771,
      "investitori": 6772,
      "eroga": 6773,
      "##ratori": 6774,
      "inizi": 6775,
      "tab": 6776,
      "pericoloso": 6777,
      "tesi": 6778,
      "##glianze": 6779,
      "interf": 6780,
      "potenziare": 6781,
      "congiuntamente": 6782,
      "modificati": 6783,
      "speranze": 6784,
      "pesante": 6785,
      "ampliare": 6786,
      "ferrovie": 6787,
      "testimonia": 6788,
      "spro": 6789,
      "tematiche": 6790,
      "lancia": 6791,
      "familiari": 6792,
      "ultraperiferiche": 6793,
      "ripre": 6794,
      "vostre": 6795,
      "attendiamo": 6796,
      "accon": 6797,
      "archi": 6798,
      "sacri": 6799,
      "disposta": 6800,
      "giustificare": 6801,
      "risponde": 6802,
      "##trio": 6803,
      "date": 6804,
      "##ttano": 6805,
      "##daf": 6806,
      "gravità": 6807,
      "2012": 6808,
      "##sità": 6809,
      "aspettare": 6810,
      "##fobia": 6811,
      "##leo": 6812,
      "estate": 6813,
      "##tz": 6814,
      "stabiliti": 6815,
      "rilascio": 6816,
      "avan": 6817,
      "prendiamo": 6818,
      "##ques": 6819,
      "multilaterale": 6820,
      "ospi": 6821,
      "catena": 6822,
      "aviazione": 6823,
      "##tino": 6824,
      "approfondito": 6825,
      "deroghe": 6826,
      "edifici": 6827,
      "denomin": 6828,
      "geno": 6829,
      "xeno": 6830,
      "scru": 6831,
      "televisione": 6832,
      "offrono": 6833,
      "##ssuto": 6834,
      "attuate": 6835,
      "sostenuta": 6836,
      "istituisce": 6837,
      "autonoma": 6838,
      "assicurazione": 6839,
      "lunghi": 6840,
      "tradizioni": 6841,
      "accoglienza": 6842,
      "esenzione": 6843,
      "rispettato": 6844,
      "dipendono": 6845,
      "interessato": 6846,
      "otte": 6847,
      "##den": 6848,
      "##sato": 6849,
      "##ship": 6850,
      "##tur": 6851,
      "chimiche": 6852,
      "fuoco": 6853,
      "temporanea": 6854,
      "ripristin": 6855,
      "originale": 6856,
      "promesso": 6857,
      "inizialmente": 6858,
      "irregola": 6859,
      "facilitare": 6860,
      "irregolarità": 6861,
      "cele": 6862,
      "vino": 6863,
      "##enna": 6864,
      "sperare": 6865,
      "##uiti": 6866,
      "rapidità": 6867,
      "socioeconom": 6868,
      "semestre": 6869,
      "##ziali": 6870,
      "tocca": 6871,
      "comunista": 6872,
      "incluso": 6873,
      "appoggiato": 6874,
      "servire": 6875,
      "##ty": 6876,
      "oggetti": 6877,
      "the": 6878,
      "requisito": 6879,
      "diversamente": 6880,
      "##metter": 6881,
      "sarò": 6882,
      "fornite": 6883,
      "civiltà": 6884,
      "divisione": 6885,
      "elettronica": 6886,
      "avvicin": 6887,
      "bla": 6888,
      "we": 6889,
      "entre": 6890,
      "300": 6891,
      "recupero": 6892,
      "transeuropee": 6893,
      "triste": 6894,
      "individuali": 6895,
      "moderna": 6896,
      "integrità": 6897,
      "tariffe": 6898,
      "sussidi": 6899,
      "vostri": 6900,
      "dolo": 6901,
      "##ficio": 6902,
      "cecenia": 6903,
      "statali": 6904,
      "ago": 6905,
      "##zziamo": 6906,
      "destin": 6907,
      "sospensione": 6908,
      "prolifer": 6909,
      "bol": 6910,
      "tentare": 6911,
      "pubblicato": 6912,
      "condannare": 6913,
      "liqui": 6914,
      "dispongono": 6915,
      "197": 6916,
      "dimostrata": 6917,
      "contribuiscono": 6918,
      "##fera": 6919,
      "tolleranza": 6920,
      "egitto": 6921,
      "godere": 6922,
      "aggiunta": 6923,
      "registrati": 6924,
      "euromedi": 6925,
      "##utati": 6926,
      "consentono": 6927,
      "conservatori": 6928,
      "giudica": 6929,
      "scandalo": 6930,
      "auspicio": 6931,
      "porte": 6932,
      "milione": 6933,
      "precise": 6934,
      "esplicitamente": 6935,
      "##ones": 6936,
      "porterà": 6937,
      "danneggia": 6938,
      "ottemp": 6939,
      "gue": 6940,
      "##plice": 6941,
      "pilota": 6942,
      "ash": 6943,
      "ricerche": 6944,
      "inqui": 6945,
      "prescri": 6946,
      "dispiace": 6947,
      "detenuti": 6948,
      "statunitense": 6949,
      "##sera": 6950,
      "sussis": 6951,
      "epide": 6952,
      "##tecnolo": 6953,
      "##wi": 6954,
      "risolto": 6955,
      "sottolineo": 6956,
      "decentra": 6957,
      "sottoscritto": 6958,
      "stranieri": 6959,
      "attentati": 6960,
      "canti": 6961,
      "regolamentare": 6962,
      "gol": 6963,
      "##sin": 6964,
      "\",": 6965,
      "collegio": 6966,
      "contraff": 6967,
      "rinunciare": 6968,
      "##derò": 6969,
      "assume": 6970,
      "danese": 6971,
      "accennato": 6972,
      "sindacati": 6973,
      "intorno": 6974,
      "bisogn": 6975,
      "appoggiamo": 6976,
      "darà": 6977,
      "suggerimenti": 6978,
      "cl": 6979,
      "ps": 6980,
      "vigenti": 6981,
      "occupazionale": 6982,
      "bor": 6983,
      "stasera": 6984,
      "reato": 6985,
      "imparare": 6986,
      "gode": 6987,
      "stima": 6988,
      "occu": 6989,
      "squa": 6990,
      "infanzia": 6991,
      "critico": 6992,
      "mera": 6993,
      "##ibi": 6994,
      "appa": 6995,
      "diciamo": 6996,
      "invoca": 6997,
      "formula": 6998,
      "sk": 6999,
      "peggiore": 7000,
      "diventato": 7001,
      "londra": 7002,
      "delicato": 7003,
      "95": 7004,
      "emb": 7005,
      "cattura": 7006,
      "resistenza": 7007,
      "clausole": 7008,
      "neutra": 7009,
      "invecchia": 7010,
      "malta": 7011,
      "##golamentazione": 7012,
      "sottoposto": 7013,
      "comprese": 7014,
      "fermezza": 7015,
      "##cana": 7016,
      "dub": 7017,
      "palestina": 7018,
      "finlandese": 7019,
      "transi": 7020,
      "digitale": 7021,
      "idone": 7022,
      "##nazionale": 7023,
      "amministrazioni": 7024,
      "modificata": 7025,
      "sopravvivenza": 7026,
      "##zionare": 7027,
      "regolare": 7028,
      "garantita": 7029,
      "dichiara": 7030,
      "avvenga": 7031,
      "valere": 7032,
      "torn": 7033,
      "adu": 7034,
      "parziale": 7035,
      "accu": 7036,
      "circoscri": 7037,
      "coinci": 7038,
      "##ssen": 7039,
      "forum": 7040,
      "pensionistici": 7041,
      "##versario": 7042,
      "vorrebbe": 7043,
      "inteso": 7044,
      "ralle": 7045,
      "imposto": 7046,
      "profic": 7047,
      "new": 7048,
      "ordina": 7049,
      "extra": 7050,
      "##gliate": 7051,
      "operativo": 7052,
      "stri": 7053,
      "##bbia": 7054,
      "realizzati": 7055,
      "corrette": 7056,
      "rien": 7057,
      "noci": 7058,
      "contraddizione": 7059,
      "sogge": 7060,
      "##buri": 7061,
      "concentrazione": 7062,
      "geografica": 7063,
      "##roghe": 7064,
      "risal": 7065,
      "aumenti": 7066,
      "##erendo": 7067,
      "onde": 7068,
      "sostenibili": 7069,
      "bovina": 7070,
      "appren": 7071,
      "favorevolmente": 7072,
      "specificamente": 7073,
      "rendendo": 7074,
      "fenomeni": 7075,
      "tessile": 7076,
      "superf": 7077,
      "##scano": 7078,
      "##entamento": 7079,
      "accura": 7080,
      "allontan": 7081,
      "piatta": 7082,
      "impegnato": 7083,
      "movimenti": 7084,
      "consentano": 7085,
      "valide": 7086,
      "brasile": 7087,
      "insisti": 7088,
      "considerate": 7089,
      "inequi": 7090,
      "##ssion": 7091,
      "pericoli": 7092,
      "equipa": 7093,
      "interessanti": 7094,
      "sostanziali": 7095,
      "rie": 7096,
      "decisa": 7097,
      "dublino": 7098,
      "timore": 7099,
      "##dipen": 7100,
      "risca": 7101,
      "migrazione": 7102,
      "approfondire": 7103,
      "##stituzione": 7104,
      "lune": 7105,
      "efficienti": 7106,
      "##cuo": 7107,
      "attuato": 7108,
      "mangimi": 7109,
      "utilità": 7110,
      "successivo": 7111,
      "azz": 7112,
      "piattaf": 7113,
      "lunedì": 7114,
      "colpa": 7115,
      "terribile": 7116,
      "##tion": 7117,
      "termin": 7118,
      "definitivo": 7119,
      "singole": 7120,
      "delegazioni": 7121,
      "sinceramente": 7122,
      "copertura": 7123,
      "inequivoca": 7124,
      "##plica": 7125,
      "totali": 7126,
      "sangue": 7127,
      "riesce": 7128,
      "plurali": 7129,
      "incontrato": 7130,
      "perlomeno": 7131,
      "ingenti": 7132,
      "culture": 7133,
      "profondo": 7134,
      "cala": 7135,
      "partecipanti": 7136,
      "scientifiche": 7137,
      "##prio": 7138,
      "esaminato": 7139,
      "corrisponde": 7140,
      "##estono": 7141,
      "potrei": 7142,
      "farmace": 7143,
      "straordinario": 7144,
      "vener": 7145,
      "pensione": 7146,
      "tribunali": 7147,
      "ratificato": 7148,
      "abuso": 7149,
      "cercano": 7150,
      "rallegra": 7151,
      "salvare": 7152,
      "registrazione": 7153,
      "lontano": 7154,
      "dinamica": 7155,
      "arbitra": 7156,
      "##ramento": 7157,
      "varia": 7158,
      "attuata": 7159,
      "indones": 7160,
      "opere": 7161,
      "sudaf": 7162,
      "russo": 7163,
      "ecofin": 7164,
      "##ldamento": 7165,
      "contamin": 7166,
      "giro": 7167,
      "terremo": 7168,
      "indispensabili": 7169,
      "mercole": 7170,
      "pluriennale": 7171,
      "preservare": 7172,
      "desta": 7173,
      "##rino": 7174,
      "respi": 7175,
      "rifor": 7176,
      "valu": 7177,
      "legame": 7178,
      "sali": 7179,
      "prefer": 7180,
      "volume": 7181,
      "peccato": 7182,
      "determinante": 7183,
      "teno": 7184,
      "vadano": 7185,
      "decisionali": 7186,
      "informale": 7187,
      "giustifica": 7188,
      "dimentichiamo": 7189,
      "venerdì": 7190,
      "mercoledì": 7191,
      "##han": 7192,
      "proroga": 7193,
      "lanciato": 7194,
      "monopoli": 7195,
      "proliferazione": 7196,
      "doha": 7197,
      "fasc": 7198,
      "lobb": 7199,
      "strategici": 7200,
      "45": 7201,
      "finalità": 7202,
      "scadenze": 7203,
      "allevamento": 7204,
      "filoso": 7205,
      "otter": 7206,
      "prioritario": 7207,
      "))": 7208,
      "rit": 7209,
      "fram": 7210,
      "denun": 7211,
      "illeci": 7212,
      "##misti": 7213,
      "inserito": 7214,
      "validi": 7215,
      "integrante": 7216,
      "svizzera": 7217,
      "avvoca": 7218,
      "##fich": 7219,
      "disavan": 7220,
      "ngl": 7221,
      "violenze": 7222,
      "paragrafi": 7223,
      "oma": 7224,
      "##acenti": 7225,
      "messe": 7226,
      "rigorosa": 7227,
      "episo": 7228,
      "attravers": 7229,
      "transfrontalieri": 7230,
      "rimasto": 7231,
      "ripristinare": 7232,
      "37": 7233,
      "vers": 7234,
      "solito": 7235,
      "credibile": 7236,
      "##arc": 7237,
      "verts": 7238,
      "diffusa": 7239,
      "applicabile": 7240,
      "evento": 7241,
      "saputo": 7242,
      "sensibilità": 7243,
      "stesura": 7244,
      "costituisca": 7245,
      "sintesi": 7246,
      "za": 7247,
      "medici": 7248,
      "esemp": 7249,
      "sanitarie": 7250,
      "euromediterrane": 7251,
      "##ttoria": 7252,
      "suscita": 7253,
      "abbandona": 7254,
      "##cin": 7255,
      "stare": 7256,
      "qualita": 7257,
      "continuiamo": 7258,
      "preparato": 7259,
      "##rimere": 7260,
      "rib": 7261,
      "verte": 7262,
      "comportano": 7263,
      "musul": 7264,
      "sche": 7265,
      "alde": 7266,
      "letto": 7267,
      "amministrativo": 7268,
      "commessi": 7269,
      "lett": 7270,
      "comprensibile": 7271,
      "precisione": 7272,
      "analogamente": 7273,
      "entusiasmo": 7274,
      "##gliare": 7275,
      "##zionata": 7276,
      "satelli": 7277,
      "vecchia": 7278,
      "previsioni": 7279,
      "americana": 7280,
      "marcia": 7281,
      "ambiziosa": 7282,
      "insegnamento": 7283,
      "##eni": 7284,
      "rimpa": 7285,
      "cig": 7286,
      "pubblicazione": 7287,
      "invitato": 7288,
      "macroeconom": 7289,
      "##hne": 7290,
      "tera": 7291,
      "##ttoli": 7292,
      "macch": 7293,
      "godono": 7294,
      "ritenere": 7295,
      "interrompe": 7296,
      "benissimo": 7297,
      "dicono": 7298,
      "interlo": 7299,
      "legata": 7300,
      "rilevanti": 7301,
      "detenzione": 7302,
      "alline": 7303,
      "adottando": 7304,
      "facciano": 7305,
      "75": 7306,
      "commento": 7307,
      "sottovalu": 7308,
      "uem": 7309,
      "stupe": 7310,
      "ottimi": 7311,
      "irresponsa": 7312,
      "tunisia": 7313,
      "accumu": 7314,
      "ripetutamente": 7315,
      "wi": 7316,
      "sensibile": 7317,
      "occorra": 7318,
      "riconciliazione": 7319,
      "feri": 7320,
      "colpo": 7321,
      "pronto": 7322,
      "verificati": 7323,
      "carbone": 7324,
      "mancano": 7325,
      "attin": 7326,
      "limitazione": 7327,
      "assoluto": 7328,
      "diventata": 7329,
      "componenti": 7330,
      "droghe": 7331,
      "scola": 7332,
      "rimasti": 7333,
      "garantisca": 7334,
      "verificato": 7335,
      "scompar": 7336,
      "post": 7337,
      "sfa": 7338,
      "tensioni": 7339,
      "eventualmente": 7340,
      "carenza": 7341,
      "vu": 7342,
      "audio": 7343,
      "notato": 7344,
      "terroristici": 7345,
      "sentenze": 7346,
      "elaborata": 7347,
      "apporta": 7348,
      "sottoposti": 7349,
      "multilaterali": 7350,
      "siete": 7351,
      "##tela": 7352,
      "rapidi": 7353,
      "colpisce": 7354,
      "stupef": 7355,
      "paio": 7356,
      "##gata": 7357,
      "ampie": 7358,
      "amba": 7359,
      "reputa": 7360,
      "destino": 7361,
      "usato": 7362,
      "motivazioni": 7363,
      "tenore": 7364,
      "negare": 7365,
      "uffici": 7366,
      "##pia": 7367,
      "inquie": 7368,
      "ambascia": 7369,
      "mac": 7370,
      "fondamento": 7371,
      "attende": 7372,
      "manifestato": 7373,
      "intelligente": 7374,
      "##dep": 7375,
      "nascon": 7376,
      "concordiamo": 7377,
      "##öm": 7378,
      "farci": 7379,
      "determinata": 7380,
      "agosto": 7381,
      "##schi": 7382,
      "massimi": 7383,
      "contratto": 7384,
      "omaggio": 7385,
      "giuris": 7386,
      "improv": 7387,
      "apertamente": 7388,
      "##wan": 7389,
      "tavolo": 7390,
      "scritta": 7391,
      "libano": 7392,
      "mirano": 7393,
      "austriaca": 7394,
      "##ortati": 7395,
      "schul": 7396,
      "##ström": 7397,
      "socialdemocratici": 7398,
      "sis": 7399,
      "##bus": 7400,
      "coinvolto": 7401,
      "##dotti": 7402,
      "concentrare": 7403,
      "femminile": 7404,
      "celeb": 7405,
      "vigente": 7406,
      "legato": 7407,
      "inonda": 7408,
      "patten": 7409,
      "limitarsi": 7410,
      "utilizza": 7411,
      "##alla": 7412,
      "##sson": 7413,
      "conge": 7414,
      "tai": 7415,
      "rafforzato": 7416,
      "preceduto": 7417,
      "comitati": 7418,
      "fondamentalmente": 7419,
      "provviso": 7420,
      "##cazioni": 7421,
      "##mping": 7422,
      "ram": 7423,
      "missioni": 7424,
      "anniversario": 7425,
      "kin": 7426,
      "meta": 7427,
      "spiace": 7428,
      "opzioni": 7429,
      "complessità": 7430,
      "modernizzazione": 7431,
      "ino": 7432,
      "registro": 7433,
      "truppe": 7434,
      "dittatura": 7435,
      "povere": 7436,
      "##visioni": 7437,
      "rivoluzione": 7438,
      "opzione": 7439,
      "ragionevoli": 7440,
      "preferi": 7441,
      "perchè": 7442,
      "##missioni": 7443,
      "rubrica": 7444,
      "ripo": 7445,
      "completare": 7446,
      "poteva": 7447,
      "gratu": 7448,
      "tranqui": 7449,
      "bambino": 7450,
      "tradizionale": 7451,
      "federazione": 7452,
      "alban": 7453,
      "definisce": 7454,
      "siria": 7455,
      "rispecchia": 7456,
      "disar": 7457,
      "elezione": 7458,
      "nutro": 7459,
      "continueranno": 7460,
      "avanzato": 7461,
      "immaginare": 7462,
      "eu": 7463,
      "severi": 7464,
      "stando": 7465,
      "rientrare": 7466,
      "dirlo": 7467,
      "##heu": 7468,
      "accuse": 7469,
      "parametri": 7470,
      "acquisi": 7471,
      "sostituzione": 7472,
      "adde": 7473,
      "effettuati": 7474,
      "allu": 7475,
      "parlo": 7476,
      "##dando": 7477,
      "rappresentata": 7478,
      "ecologica": 7479,
      "possesso": 7480,
      "osservatorio": 7481,
      "procla": 7482,
      "##ficia": 7483,
      "procedimenti": 7484,
      "differenti": 7485,
      "regolari": 7486,
      "intervengo": 7487,
      "spendere": 7488,
      "cancro": 7489,
      "trascura": 7490,
      "scapito": 7491,
      "xxi": 7492,
      "audiovisi": 7493,
      "har": 7494,
      "realizz": 7495,
      "instaurare": 7496,
      "ritornare": 7497,
      "##dico": 7498,
      "##trando": 7499,
      "assor": 7500,
      "interrogativi": 7501,
      "siti": 7502,
      "soggetto": 7503,
      "direi": 7504,
      "limitazioni": 7505,
      "pacifico": 7506,
      "completamento": 7507,
      "prezioso": 7508,
      "riporta": 7509,
      "televisi": 7510,
      "somme": 7511,
      "vuol": 7512,
      "radica": 7513,
      "produttività": 7514,
      "comprendo": 7515,
      "sole": 7516,
      "##esimo": 7517,
      "colomb": 7518,
      "##geranno": 7519,
      "resa": 7520,
      "sottoporre": 7521,
      "insoddisf": 7522,
      "fortunatamente": 7523,
      "##cola": 7524,
      "raccoman": 7525,
      "precisi": 7526,
      "redigere": 7527,
      "##turo": 7528,
      "##sori": 7529,
      "elettronico": 7530,
      "os": 7531,
      "spalle": 7532,
      "conservare": 7533,
      "distorsioni": 7534,
      "##rno": 7535,
      "esorta": 7536,
      "svolte": 7537,
      "espansione": 7538,
      "tangi": 7539,
      "deposi": 7540,
      "legittimo": 7541,
      "comunicato": 7542,
      "applicabili": 7543,
      "elettorali": 7544,
      "imb": 7545,
      "cattiva": 7546,
      "sento": 7547,
      "assunzione": 7548,
      "sh": 7549,
      "zero": 7550,
      "esu": 7551,
      "negativa": 7552,
      "manifestazioni": 7553,
      "obiezioni": 7554,
      "raga": 7555,
      "occupati": 7556,
      "##ft": 7557,
      "duplice": 7558,
      "generi": 7559,
      "economicamente": 7560,
      "attribuisce": 7561,
      "recepimento": 7562,
      "presun": 7563,
      "complementare": 7564,
      "galileo": 7565,
      "imminente": 7566,
      "##darsi": 7567,
      "gamma": 7568,
      "dimenticato": 7569,
      "conseguimento": 7570,
      "##tagon": 7571,
      "seguendo": 7572,
      "vietare": 7573,
      "commesso": 7574,
      "suolo": 7575,
      "allargata": 7576,
      "imper": 7577,
      "combustibili": 7578,
      "schulz": 7579,
      "##dr": 7580,
      "cristiano": 7581,
      "prendendo": 7582,
      "pertinenti": 7583,
      "pala": 7584,
      "raddo": 7585,
      "libere": 7586,
      "fragi": 7587,
      "lunghe": 7588,
      "individuale": 7589,
      "incarico": 7590,
      "slancio": 7591,
      "viaggia": 7592,
      "##var": 7593,
      "dovuti": 7594,
      "incondi": 7595,
      "##sene": 7596,
      "##zionalmente": 7597,
      "dodici": 7598,
      "enn": 7599,
      "chilo": 7600,
      "divergenze": 7601,
      "capaci": 7602,
      "allevatori": 7603,
      "decine": 7604,
      "condannato": 7605,
      "##mbolo": 7606,
      "colonia": 7607,
      "cibo": 7608,
      "equivale": 7609,
      "her": 7610,
      "##gate": 7611,
      "##ssier": 7612,
      "##ficando": 7613,
      "persua": 7614,
      "ster": 7615,
      "libia": 7616,
      "necessita": 7617,
      "##wo": 7618,
      "promessa": 7619,
      "voli": 7620,
      "##sciuto": 7621,
      "bilaterale": 7622,
      "approvate": 7623,
      "sollevate": 7624,
      "dossier": 7625,
      "1992": 7626,
      "eccezionale": 7627,
      "telef": 7628,
      "illustrato": 7629,
      "frase": 7630,
      "assegnazione": 7631,
      "pescherecci": 7632,
      "utilizzata": 7633,
      "accessibili": 7634,
      "ashton": 7635,
      "##mesti": 7636,
      "dio": 7637,
      "offri": 7638,
      "gravemente": 7639,
      "eccezioni": 7640,
      "solana": 7641,
      "felice": 7642,
      "##ya": 7643,
      "logico": 7644,
      "crescere": 7645,
      "destinare": 7646,
      "autentica": 7647,
      "discussa": 7648,
      "insegn": 7649,
      "inferiori": 7650,
      "componente": 7651,
      "israeliani": 7652,
      "attivi": 7653,
      "cancelli": 7654,
      "religiose": 7655,
      "fumo": 7656,
      "##ttenti": 7657,
      "subire": 7658,
      "pervenire": 7659,
      "##camente": 7660,
      "conferire": 7661,
      "occorrerà": 7662,
      "aperti": 7663,
      "tentato": 7664,
      "caratterizzato": 7665,
      "automobilistica": 7666,
      "affrontata": 7667,
      "mantenuto": 7668,
      "legislazioni": 7669,
      "tedeschi": 7670,
      "straordinaria": 7671,
      "utilizzando": 7672,
      "produce": 7673,
      "pratico": 7674,
      "conciliare": 7675,
      "ricercatori": 7676,
      "concepi": 7677,
      "ideale": 7678,
      "sconfi": 7679,
      "occupano": 7680,
      "appropriato": 7681,
      "##ttuto": 7682,
      "vigilare": 7683,
      "##zego": 7684,
      "sostenendo": 7685,
      "fianco": 7686,
      "impon": 7687,
      "autun": 7688,
      "aumentato": 7689,
      "passati": 7690,
      "coprire": 7691,
      "fischler": 7692,
      "##zegovina": 7693,
      "eurodep": 7694,
      "caccia": 7695,
      "motore": 7696,
      "superato": 7697,
      "fabbrica": 7698,
      "discorsi": 7699,
      "scienzia": 7700,
      "aerea": 7701,
      "riducendo": 7702,
      "sussiste": 7703,
      "amico": 7704,
      "evitando": 7705,
      "finire": 7706,
      "cs": 7707,
      "prendo": 7708,
      "precisamente": 7709,
      "consentendo": 7710,
      "ripeter": 7711,
      "intrapreso": 7712,
      "vasto": 7713,
      "verheu": 7714,
      "unilaterale": 7715,
      "attendono": 7716,
      "##ortuna": 7717,
      "intraprese": 7718,
      "direttore": 7719,
      "##ke": 7720,
      "miliardo": 7721,
      "abolire": 7722,
      "complimenta": 7723,
      "parallel": 7724,
      "verheugen": 7725,
      "comportare": 7726,
      "sana": 7727,
      "distingu": 7728,
      "##mmissi": 7729,
      "osce": 7730,
      "spera": 7731,
      "correggere": 7732,
      "##ziamo": 7733,
      "##zzature": 7734,
      "marittimi": 7735,
      "##ns": 7736,
      "##liber": 7737,
      "urgentemente": 7738,
      "pilastri": 7739,
      "rinviare": 7740,
      "censura": 7741,
      "inammissi": 7742,
      "anticipa": 7743,
      "##tiene": 7744,
      "sad": 7745,
      "carri": 7746,
      "confido": 7747,
      "ritmo": 7748,
      "36": 7749,
      "stanziamento": 7750,
      "xenofobia": 7751,
      "##dibili": 7752,
      "rav": 7753,
      "serietà": 7754,
      "pregiudi": 7755,
      "##ry": 7756,
      "##pri": 7757,
      "eravamo": 7758,
      "erzegovina": 7759,
      "riaff": 7760,
      "propa": 7761,
      "manifestare": 7762,
      "smalti": 7763,
      "stupefacenti": 7764,
      "biotecnolo": 7765,
      "monitorare": 7766,
      "semb": 7767,
      "##derci": 7768,
      "rileva": 7769,
      "probabile": 7770,
      "perf": 7771,
      "sollevata": 7772,
      "agito": 7773,
      "brok": 7774,
      "imbarcazioni": 7775,
      "farmaceuti": 7776,
      "ere": 7777,
      "rispettive": 7778,
      "risorsa": 7779,
      "competitivo": 7780,
      "stanziati": 7781,
      "annuali": 7782,
      "preparativi": 7783,
      "##arie": 7784,
      "vecchio": 7785,
      "rating": 7786,
      "sospesa": 7787,
      "emar": 7788,
      "##os": 7789,
      "esigere": 7790,
      "fisica": 7791,
      "colmare": 7792,
      "diventando": 7793,
      "sofferenze": 7794,
      "studiare": 7795,
      "##mic": 7796,
      "##vista": 7797,
      "sfo": 7798,
      "autunno": 7799,
      "affrontando": 7800,
      "anticip": 7801,
      "inaccettabili": 7802,
      "israeliano": 7803,
      "migranti": 7804,
      "giuridicamente": 7805,
      "manovra": 7806,
      "##ento": 7807,
      "lezione": 7808,
      "agenti": 7809,
      "esauriente": 7810,
      "##ller": 7811,
      "##siste": 7812,
      "bassa": 7813,
      "illustrare": 7814,
      "applicano": 7815,
      "##gante": 7816,
      "##riche": 7817,
      "tampere": 7818,
      "congresso": 7819,
      "tendenze": 7820,
      "slovenia": 7821,
      "vel": 7822,
      "pesti": 7823,
      "mettono": 7824,
      "##guardo": 7825,
      "veter": 7826,
      "andrà": 7827,
      "c4": 7828,
      "##entare": 7829,
      "##specie": 7830,
      "concetti": 7831,
      "accolta": 7832,
      "preferito": 7833,
      "cinqu": 7834,
      "constatato": 7835,
      "##cy": 7836,
      "coerenti": 7837,
      "dazi": 7838,
      "santer": 7839,
      "retribuzione": 7840,
      "teso": 7841,
      "##ssili": 7842,
      "definite": 7843,
      "importantissimo": 7844,
      "frontex": 7845,
      "guerre": 7846,
      "assunta": 7847,
      "##gro": 7848,
      "brevetto": 7849,
      "stoccol": 7850,
      "affermando": 7851,
      "ripristi": 7852,
      "simboli": 7853,
      "stoccolma": 7854,
      "05": 7855,
      "supervisione": 7856,
      "rettifica": 7857,
      "##cuti": 7858,
      "##siva": 7859,
      "vendite": 7860,
      "saremmo": 7861,
      "superfici": 7862,
      "calcio": 7863,
      "fattispecie": 7864,
      "identificazione": 7865,
      "pensionati": 7866,
      "plau": 7867,
      "disacc": 7868,
      "legifer": 7869,
      "mobilitazione": 7870,
      "impedisce": 7871,
      "inquinanti": 7872,
      "classe": 7873,
      "riscaldamento": 7874,
      "sezione": 7875,
      "continuamente": 7876,
      "conseguente": 7877,
      "continuità": 7878,
      "##ork": 7879,
      "chiamato": 7880,
      "affrontati": 7881,
      "convi": 7882,
      "citati": 7883,
      "complessiva": 7884,
      "viva": 7885,
      "vittoria": 7886,
      "condivisa": 7887,
      "tratto": 7888,
      "momenti": 7889,
      "bov": 7890,
      "rivela": 7891,
      "sala": 7892,
      "sospeso": 7893,
      "evidenti": 7894,
      "operativa": 7895,
      "toss": 7896,
      "successiva": 7897,
      "menzionare": 7898,
      "je": 7899,
      "testa": 7900,
      "lar": 7901,
      "approvo": 7902,
      "##ors": 7903,
      "faranno": 7904,
      "indebi": 7905,
      "soggiorno": 7906,
      "inondazioni": 7907,
      "idro": 7908,
      "##vali": 7909,
      "puramente": 7910,
      "accadendo": 7911,
      "rigoroso": 7912,
      "comparto": 7913,
      "##ficano": 7914,
      "causati": 7915,
      "aumentando": 7916,
      "traduzione": 7917,
      "##visti": 7918,
      "inevitabilmente": 7919,
      "ech": 7920,
      "##ongo": 7921,
      "esposto": 7922,
      "regolamenta": 7923,
      "forniti": 7924,
      "settimo": 7925,
      "religiosa": 7926,
      "pesticidi": 7927,
      "inti": 7928,
      "##dopera": 7929,
      "doveva": 7930,
      "validità": 7931,
      "affidabilità": 7932,
      "innal": 7933,
      "?,": 7934,
      "emo": 7935,
      "##mili": 7936,
      "reazioni": 7937,
      "##nate": 7938,
      "timor": 7939,
      "siner": 7940,
      "contenuta": 7941,
      "obbligatorie": 7942,
      "manodopera": 7943,
      "sva": 7944,
      "vivi": 7945,
      "russi": 7946,
      "barba": 7947,
      "prenda": 7948,
      "formulata": 7949,
      "flessibili": 7950,
      "ispezioni": 7951,
      "doppio": 7952,
      "attualità": 7953,
      "pesc": 7954,
      "concentrarci": 7955,
      "ricordiamo": 7956,
      "cofinanziamento": 7957,
      "ruo": 7958,
      "comitatologia": 7959,
      "##lante": 7960,
      "##fichi": 7961,
      "riformare": 7962,
      "appartenenti": 7963,
      "atlantico": 7964,
      "cancelliere": 7965,
      "lordo": 7966,
      "muro": 7967,
      "##ocali": 7968,
      "##tron": 7969,
      "connesse": 7970,
      "cere": 7971,
      "##tualmente": 7972,
      "##ja": 7973,
      "messico": 7974,
      "fili": 7975,
      "energetici": 7976,
      "riflessioni": 7977,
      "dettagliata": 7978,
      "calamità": 7979,
      "fol": 7980,
      "attendo": 7981,
      "postali": 7982,
      "modu": 7983,
      "gradualmente": 7984,
      "gratitudine": 7985,
      "giocattoli": 7986,
      "impron": 7987,
      "sviluppato": 7988,
      "dimostri": 7989,
      "denunce": 7990,
      "az": 7991,
      "mostrare": 7992,
      "nigeria": 7993,
      "##dor": 7994,
      "inta": 7995,
      "dere": 7996,
      "affli": 7997,
      "fornendo": 7998,
      "allarme": 7999,
      "ciascuna": 8000,
      "incisi": 8001,
      "bö": 8002,
      "aperte": 8003,
      "africana": 8004,
      "ugualmente": 8005,
      "delocali": 8006,
      "ritirare": 8007,
      "spiegato": 8008,
      "ministero": 8009,
      "##urando": 8010,
      "disin": 8011,
      "acquistare": 8012,
      "diventerà": 8013,
      "indonesia": 8014,
      "avval": 8015,
      "giuste": 8016,
      "1993": 8017,
      "##plici": 8018,
      "##erlo": 8019,
      "effettuato": 8020,
      "destinazione": 8021,
      "sesto": 8022,
      "riferire": 8023,
      "condann": 8024,
      "suddi": 8025,
      "leadership": 8026,
      "supplementare": 8027,
      "invecchiamento": 8028,
      "meda": 8029,
      "resis": 8030,
      "contenere": 8031,
      "cambi": 8032,
      "scozia": 8033,
      "margini": 8034,
      "33": 8035,
      "##speda": 8036,
      "##scetti": 8037,
      "usati": 8038,
      "camera": 8039,
      "passando": 8040,
      "coste": 8041,
      "eurosta": 8042,
      "importa": 8043,
      "parag": 8044,
      "congel": 8045,
      "ospeda": 8046,
      "dica": 8047,
      "sig": 8048,
      "attenta": 8049,
      "greca": 8050,
      "allarman": 8051,
      "32": 8052,
      "sistematicamente": 8053,
      "stradali": 8054,
      "aspettano": 8055,
      "indicano": 8056,
      "prioritari": 8057,
      "migratori": 8058,
      "cellule": 8059,
      "ones": 8060,
      "monete": 8061,
      "esaminando": 8062,
      "separazione": 8063,
      "##mone": 8064,
      "fermo": 8065,
      "bloccare": 8066,
      "supporto": 8067,
      "lì": 8068,
      "##bel": 8069,
      "ridis": 8070,
      "parecchi": 8071,
      "instabilità": 8072,
      "edili": 8073,
      "mostrato": 8074,
      "veterina": 8075,
      "talmente": 8076,
      "##polio": 8077,
      "##viare": 8078,
      "recessione": 8079,
      "##ulo": 8080,
      "perp": 8081,
      "presidenzia": 8082,
      "embr": 8083,
      "costituita": 8084,
      "compara": 8085,
      "dignito": 8086,
      "persis": 8087,
      "circostanza": 8088,
      "volontario": 8089,
      "sedi": 8090,
      "punta": 8091,
      "applicati": 8092,
      "clandestini": 8093,
      "inevitabile": 8094,
      "incapacità": 8095,
      "oo": 8096,
      "sottoposta": 8097,
      "seguita": 8098,
      "trasferire": 8099,
      "##lismo": 8100,
      "sito": 8101,
      "concessioni": 8102,
      "biocar": 8103,
      "##terra": 8104,
      "ristre": 8105,
      "manu": 8106,
      "porgere": 8107,
      "eventualità": 8108,
      "risarcimento": 8109,
      "##tabile": 8110,
      "contribuendo": 8111,
      "adoperarsi": 8112,
      "aliquote": 8113,
      "##dit": 8114,
      "##sessu": 8115,
      "famo": 8116,
      "vienna": 8117,
      "bush": 8118,
      "riprende": 8119,
      "##sion": 8120,
      "superiori": 8121,
      "olimp": 8122,
      "ivi": 8123,
      "##sivo": 8124,
      "imperia": 8125,
      "##esima": 8126,
      "sostenitori": 8127,
      "impegnarci": 8128,
      "etichetta": 8129,
      "protezionismo": 8130,
      "helsin": 8131,
      "ricevono": 8132,
      "riprodu": 8133,
      "##ut": 8134,
      "ved": 8135,
      "indennità": 8136,
      "helsinki": 8137,
      "dovute": 8138,
      "dumping": 8139,
      "promuove": 8140,
      "riservato": 8141,
      "insufficienti": 8142,
      "odio": 8143,
      "##carsi": 8144,
      "protagon": 8145,
      "liberi": 8146,
      "succede": 8147,
      "attorno": 8148,
      "riconosciuta": 8149,
      "cod": 8150,
      "potenza": 8151,
      "ministeria": 8152,
      "ringraziando": 8153,
      "giunge": 8154,
      "sessuali": 8155,
      "incompren": 8156,
      "esausti": 8157,
      "##lle": 8158,
      "diamo": 8159,
      "dedicare": 8160,
      "##ttazione": 8161,
      "utilizz": 8162,
      "puntare": 8163,
      "solleva": 8164,
      "auspicato": 8165,
      "tibet": 8166,
      "##parla": 8167,
      "chiederle": 8168,
      "##zionati": 8169,
      "lungi": 8170,
      "renderà": 8171,
      "preveda": 8172,
      "forniscono": 8173,
      "##gru": 8174,
      "giovane": 8175,
      "assurdo": 8176,
      "ase": 8177,
      "##cino": 8178,
      "mali": 8179,
      "fil": 8180,
      "molteplici": 8181,
      "concordare": 8182,
      "compromettere": 8183,
      "pericolosa": 8184,
      "##ttuali": 8185,
      "esposizione": 8186,
      "sensibilizzazione": 8187,
      "anticipo": 8188,
      "colombia": 8189,
      "scienziati": 8190,
      "##ficherebbe": 8191,
      "bancario": 8192,
      "##ganda": 8193,
      "etnica": 8194,
      "complimentarmi": 8195,
      "400": 8196,
      "mcc": 8197,
      "##gino": 8198,
      "ristabili": 8199,
      "contrariamente": 8200,
      "ecosiste": 8201,
      "##ling": 8202,
      "residenti": 8203,
      "##ye": 8204,
      "moldo": 8205,
      "discute": 8206,
      "accolti": 8207,
      "prioritaria": 8208,
      "procura": 8209,
      "moratoria": 8210,
      "sovietica": 8211,
      "preroga": 8212,
      "federali": 8213,
      "radioatti": 8214,
      "procedimento": 8215,
      "farò": 8216,
      "ciprio": 8217,
      "soldati": 8218,
      "tecnologica": 8219,
      "provocare": 8220,
      "##hei": 8221,
      "producono": 8222,
      "incor": 8223,
      "stabilite": 8224,
      "##tna": 8225,
      "lettere": 8226,
      "canali": 8227,
      "scetti": 8228,
      "bordo": 8229,
      "audizione": 8230,
      "nazionalità": 8231,
      "passap": 8232,
      "impiegati": 8233,
      "saddam": 8234,
      "belle": 8235,
      "##tch": 8236,
      "taiwan": 8237,
      "48": 8238,
      "embar": 8239,
      "mich": 8240,
      "avva": 8241,
      "creata": 8242,
      "concessi": 8243,
      "tematica": 8244,
      "rivestono": 8245,
      "rischiano": 8246,
      "##án": 8247,
      "dissi": 8248,
      "##rientale": 8249,
      "unitaria": 8250,
      "coordinata": 8251,
      "deploro": 8252,
      "ecologico": 8253,
      "osti": 8254,
      "rilan": 8255,
      "riferito": 8256,
      "risultare": 8257,
      "messaggi": 8258,
      "biocarburanti": 8259,
      "insor": 8260,
      "riescono": 8261,
      "dichiaro": 8262,
      "emergere": 8263,
      "delicata": 8264,
      "vorrà": 8265,
      "indiff": 8266,
      "apparecchia": 8267,
      "adattamento": 8268,
      "comme": 8269,
      "scarsi": 8270,
      "iter": 8271,
      "imprescin": 8272,
      "protesta": 8273,
      "inclusa": 8274,
      "vietna": 8275,
      "rinnovabile": 8276,
      "arricchi": 8277,
      "esprimersi": 8278,
      "eurostat": 8279,
      "latti": 8280,
      "desideri": 8281,
      "roth": 8282,
      "disastri": 8283,
      "spiega": 8284,
      "riduzioni": 8285,
      "compensa": 8286,
      "memoria": 8287,
      "##varsi": 8288,
      "algeria": 8289,
      "##damente": 8290,
      "diffon": 8291,
      "partecipano": 8292,
      "arrivo": 8293,
      "pene": 8294,
      "madre": 8295,
      "##erate": 8296,
      "guine": 8297,
      "residui": 8298,
      "sbagliata": 8299,
      "affidabili": 8300,
      "fornita": 8301,
      "##tarlo": 8302,
      "rivelato": 8303,
      "apparente": 8304,
      "costretto": 8305,
      "osse": 8306,
      "caro": 8307,
      "##antile": 8308,
      "potenzialmente": 8309,
      "auguri": 8310,
      "vergogno": 8311,
      "attrezzature": 8312,
      "sudafrica": 8313,
      "38": 8314,
      "cambiato": 8315,
      "estremo": 8316,
      "estonia": 8317,
      "bandiera": 8318,
      "abbi": 8319,
      "probabilità": 8320,
      "occidente": 8321,
      "comporterà": 8322,
      "sfuggi": 8323,
      "##wski": 8324,
      "operativi": 8325,
      "veloce": 8326,
      "manipo": 8327,
      "cereali": 8328,
      "considerano": 8329,
      "riconosciuti": 8330,
      "profonde": 8331,
      "cautela": 8332,
      "riposo": 8333,
      "han": 8334,
      "##moder": 8335,
      "##cidio": 8336,
      "fuor": 8337,
      "monti": 8338,
      "1990": 8339,
      "turca": 8340,
      "adeguare": 8341,
      "basarsi": 8342,
      "cauca": 8343,
      "nave": 8344,
      "arriva": 8345,
      "stanziare": 8346,
      "etica": 8347,
      "ges": 8348,
      "preferenze": 8349,
      "terreni": 8350,
      "preventiva": 8351,
      "##mme": 8352,
      "##orno": 8353,
      "obbligatorio": 8354,
      "netto": 8355,
      "imputa": 8356,
      "purché": 8357,
      "lt": 8358,
      "reatto": 8359,
      "impera": 8360,
      "giudicare": 8361,
      "risparmi": 8362,
      "embargo": 8363,
      "laburi": 8364,
      "##cha": 8365,
      "chiarito": 8366,
      "competere": 8367,
      "generalmente": 8368,
      "identificare": 8369,
      "trasferimenti": 8370,
      "previdenza": 8371,
      "##yer": 8372,
      "altron": 8373,
      "creano": 8374,
      "primaria": 8375,
      "basate": 8376,
      "respinta": 8377,
      "monopolio": 8378,
      "ingan": 8379,
      "coni": 8380,
      "armamenti": 8381,
      "radicali": 8382,
      "altronde": 8383,
      "fes": 8384,
      "lavorativa": 8385,
      "giustificata": 8386,
      "giustificato": 8387,
      "appartenenza": 8388,
      "grosso": 8389,
      "introduce": 8390,
      "autentico": 8391,
      "34": 8392,
      "##nes": 8393,
      "##for": 8394,
      "vedono": 8395,
      "necessitano": 8396,
      "progress": 8397,
      "riuscirà": 8398,
      "giudiziarie": 8399,
      "eva": 8400,
      "disaccordo": 8401,
      "duro": 8402,
      "idri": 8403,
      "colture": 8404,
      "disabilità": 8405,
      "##ón": 8406,
      "##ultura": 8407,
      "stime": 8408,
      "inasp": 8409,
      "omici": 8410,
      "##burante": 8411,
      "diagno": 8412,
      "omosessu": 8413,
      "##tire": 8414,
      "apprezzato": 8415,
      "potenziamento": 8416,
      "custo": 8417,
      "medico": 8418,
      "doppia": 8419,
      "riesca": 8420,
      "piattaforma": 8421,
      "osc": 8422,
      "##vanza": 8423,
      "include": 8424,
      "autonomi": 8425,
      "troppi": 8426,
      "migliorato": 8427,
      "decide": 8428,
      "rispettano": 8429,
      "conseguito": 8430,
      "diminuire": 8431,
      "polacchi": 8432,
      "espul": 8433,
      "possie": 8434,
      "condivisione": 8435,
      "piace": 8436,
      "marino": 8437,
      "coali": 8438,
      "aderito": 8439,
      "esposti": 8440,
      "rappresentati": 8441,
      "dovessero": 8442,
      "educa": 8443,
      "duratura": 8444,
      "##tuo": 8445,
      "sesso": 8446,
      "critici": 8447,
      "opposto": 8448,
      "duramente": 8449,
      "suggerito": 8450,
      "suscitato": 8451,
      "poe": 8452,
      "personalità": 8453,
      "privatizzazione": 8454,
      "vent": 8455,
      "conclude": 8456,
      "derivano": 8457,
      "elettrica": 8458,
      "55": 8459,
      "##pie": 8460,
      "definitivamente": 8461,
      "denunciare": 8462,
      "lettonia": 8463,
      "rendo": 8464,
      "##dy": 8465,
      "razionali": 8466,
      "infini": 8467,
      "viaggi": 8468,
      "condotte": 8469,
      "legiferare": 8470,
      "jugoslavia": 8471,
      "frutti": 8472,
      "madrid": 8473,
      "pio": 8474,
      "ammoder": 8475,
      "affrontate": 8476,
      "guidare": 8477,
      "##ington": 8478,
      "decennio": 8479,
      "presupposti": 8480,
      "respiro": 8481,
      "##ms": 8482,
      "tradurre": 8483,
      "argomentazione": 8484,
      "incluse": 8485,
      "flusso": 8486,
      "pluralismo": 8487,
      "congedo": 8488,
      "g20": 8489,
      "prome": 8490,
      "flotte": 8491,
      "aspirazioni": 8492,
      "eman": 8493,
      "lode": 8494,
      "sospendere": 8495,
      "transfrontaliere": 8496,
      "##tes": 8497,
      "deterio": 8498,
      "domesti": 8499,
      "loco": 8500,
      "colgo": 8501,
      "impedito": 8502,
      "considerevoli": 8503,
      "apparecchiature": 8504,
      "intenda": 8505,
      "parado": 8506,
      "avviata": 8507,
      "segreto": 8508,
      "##una": 8509,
      "coltivazione": 8510,
      "voterà": 8511,
      "bisogni": 8512,
      "promuovendo": 8513,
      "impar": 8514,
      "migliorata": 8515,
      "acquisire": 8516,
      "cruciali": 8517,
      "esteso": 8518,
      "genocidio": 8519,
      "scaten": 8520,
      "recla": 8521,
      "uscita": 8522,
      "riceve": 8523,
      "comportamenti": 8524,
      "professionisti": 8525,
      "organ": 8526,
      "riferimenti": 8527,
      "risparmiare": 8528,
      "pò": 8529,
      "ucci": 8530,
      "nascita": 8531,
      "stiano": 8532,
      "pubblicamente": 8533,
      "potenze": 8534,
      "specificità": 8535,
      "venissero": 8536,
      "von": 8537,
      "##nock": 8538,
      "digitali": 8539,
      "preparando": 8540,
      "isolamento": 8541,
      "milo": 8542,
      "troppe": 8543,
      "##guaglianze": 8544,
      "barone": 8545,
      "lasciando": 8546,
      "potete": 8547,
      "rigorose": 8548,
      "consistente": 8549,
      "disarmo": 8550,
      "mine": 8551,
      "##erabile": 8552,
      "trovi": 8553,
      "volontari": 8554,
      "selezione": 8555,
      "accanto": 8556,
      "sfortuna": 8557,
      "umanitarie": 8558,
      "ocse": 8559,
      "dista": 8560,
      "##uite": 8561,
      "democraticamente": 8562,
      "compatibile": 8563,
      "kinnock": 8564,
      "caucaso": 8565,
      "impossi": 8566,
      "squilibri": 8567,
      "viviamo": 8568,
      "unitamente": 8569,
      "limitate": 8570,
      "permetto": 8571,
      "imposti": 8572,
      "sostitui": 8573,
      "colpevoli": 8574,
      "##reg": 8575,
      "##andosi": 8576,
      "comprendono": 8577,
      "transfrontaliero": 8578,
      "immen": 8579,
      "occupazionali": 8580,
      "scenario": 8581,
      "rinnovo": 8582,
      "##cata": 8583,
      "sostenuti": 8584,
      "accettazione": 8585,
      "sconvol": 8586,
      "doveri": 8587,
      "percorrere": 8588,
      "dedic": 8589,
      "matura": 8590,
      "utilizzano": 8591,
      "carburante": 8592,
      "statunitensi": 8593,
      "pn": 8594,
      "##urg": 8595,
      "eurodeputati": 8596,
      "incorpo": 8597,
      "##sio": 8598,
      "##mpati": 8599,
      "mag": 8600,
      "dirigenti": 8601,
      "offrendo": 8602,
      "falsi": 8603,
      "pronunciato": 8604,
      "finanziati": 8605,
      "montene": 8606,
      "sensazione": 8607,
      "##ttering": 8608,
      "accettabili": 8609,
      "interopera": 8610,
      "##les": 8611,
      "formalmente": 8612,
      "lungimi": 8613,
      "preoccupato": 8614,
      "provin": 8615,
      "svedesi": 8616,
      "##bil": 8617,
      "infrazione": 8618,
      "adeguar": 8619,
      "democrazie": 8620,
      "rotta": 8621,
      "giustificazione": 8622,
      "associo": 8623,
      "aggiornamento": 8624,
      "igi": 8625,
      "york": 8626,
      "##ibile": 8627,
      "contengono": 8628,
      "primario": 8629,
      "condiviso": 8630,
      "condivisi": 8631,
      "attive": 8632,
      "pragma": 8633,
      "usuf": 8634,
      "recuperare": 8635,
      "nettamente": 8636,
      "intese": 8637,
      "elo": 8638,
      "liberazione": 8639,
      "limitati": 8640,
      "clienti": 8641,
      "##ghesi": 8642,
      "licenze": 8643,
      "moldova": 8644,
      "parlano": 8645,
      "##zoo": 8646,
      "complementari": 8647,
      "partenariati": 8648,
      "interrogativo": 8649,
      "chiamata": 8650,
      "tabella": 8651,
      "andamento": 8652,
      "##vento": 8653,
      "assegnato": 8654,
      "hiv": 8655,
      "##mul": 8656,
      "##cultura": 8657,
      "##cherò": 8658,
      "##grafia": 8659,
      "tenute": 8660,
      "realistico": 8661,
      "rimasta": 8662,
      "pane": 8663,
      "simbolo": 8664,
      "ridotte": 8665,
      "coniu": 8666,
      "##sol": 8667,
      "verrebbe": 8668,
      "diceva": 8669,
      "distruggere": 8670,
      "42": 8671,
      "premi": 8672,
      "prevale": 8673,
      "ragg": 8674,
      "compiendo": 8675,
      "costituirà": 8676,
      "delibera": 8677,
      "##ves": 8678,
      "novità": 8679,
      "rispetti": 8680,
      "riconosco": 8681,
      "esclusiva": 8682,
      "riconosciamo": 8683,
      "chiederci": 8684,
      "riesame": 8685,
      "norve": 8686,
      "voterò": 8687,
      "vinci": 8688,
      "rivelarsi": 8689,
      "comportato": 8690,
      "esponenti": 8691,
      "archite": 8692,
      "cielo": 8693,
      "##metro": 8694,
      "riguardi": 8695,
      "contraddi": 8696,
      "smaltimento": 8697,
      "##ttini": 8698,
      "svolgendo": 8699,
      "alimenta": 8700,
      "consentirebbe": 8701,
      "appreso": 8702,
      "inquina": 8703,
      "cub": 8704,
      "##tudini": 8705,
      "epizoo": 8706,
      "assorbi": 8707,
      "baronessa": 8708,
      "43": 8709,
      "##smu": 8710,
      "##cimento": 8711,
      "coopera": 8712,
      "alternativi": 8713,
      "selva": 8714,
      "tanta": 8715,
      "discuter": 8716,
      "equità": 8717,
      "invitiamo": 8718,
      "calcolo": 8719,
      "fermare": 8720,
      "vuoto": 8721,
      "parallelamente": 8722,
      "##ario": 8723,
      "prema": 8724,
      "sapre": 8725,
      "esista": 8726,
      "rigorosi": 8727,
      "sorprendente": 8728,
      "sinte": 8729,
      "automaticamente": 8730,
      "inammissibile": 8731,
      "tesa": 8732,
      "francamente": 8733,
      "presuppone": 8734,
      "analoghe": 8735,
      "cosp": 8736,
      "vertici": 8737,
      "maternità": 8738,
      "accessibile": 8739,
      "cosiddette": 8740,
      "soddisfatta": 8741,
      "haiti": 8742,
      "esortare": 8743,
      "adopera": 8744,
      "chiedersi": 8745,
      "carcere": 8746,
      "collegati": 8747,
      "congiunto": 8748,
      "sleale": 8749,
      "basti": 8750,
      "clon": 8751,
      "guinea": 8752,
      "##guità": 8753,
      "insistito": 8754,
      "innalza": 8755,
      "gö": 8756,
      "##rov": 8757,
      "como": 8758,
      "leale": 8759,
      "rimo": 8760,
      "##dazione": 8761,
      "enfa": 8762,
      "provvedere": 8763,
      "descritto": 8764,
      "##mmissione": 8765,
      "indurre": 8766,
      "rispettate": 8767,
      "ratificare": 8768,
      "chiarimento": 8769,
      "rimborso": 8770,
      "lam": 8771,
      "complesse": 8772,
      "##tariato": 8773,
      "##und": 8774,
      "cie": 8775,
      "veder": 8776,
      "sorpresa": 8777,
      "prestazione": 8778,
      "presidenze": 8779,
      "##tteremo": 8780,
      "tossico": 8781,
      "assistiamo": 8782,
      "parigi": 8783,
      "costiere": 8784,
      "2015": 8785,
      "indenni": 8786,
      "giochi": 8787,
      "kara": 8788,
      "ministeriale": 8789,
      "attua": 8790,
      "rivolger": 8791,
      "risiede": 8792,
      "attraversando": 8793,
      "fla": 8794,
      "indo": 8795,
      "##ttuta": 8796,
      "pechino": 8797,
      "erogazione": 8798,
      "##fini": 8799,
      "risultano": 8800,
      "taglio": 8801,
      "fungere": 8802,
      "storici": 8803,
      "derivati": 8804,
      "fabbiso": 8805,
      "pratici": 8806,
      "terribili": 8807,
      "introdotte": 8808,
      "incompati": 8809,
      "infantile": 8810,
      "sicure": 8811,
      "cessa": 8812,
      "stupi": 8813,
      "dedicata": 8814,
      "appropriata": 8815,
      "vene": 8816,
      "anda": 8817,
      "patolo": 8818,
      "crollo": 8819,
      "##ond": 8820,
      "sorpre": 8821,
      "soppressione": 8822,
      "lontani": 8823,
      "protegg": 8824,
      "realistica": 8825,
      "ringraziarla": 8826,
      "pensato": 8827,
      "piedi": 8828,
      "raddoppia": 8829,
      "alcol": 8830,
      "immobili": 8831,
      "collegamenti": 8832,
      "accadere": 8833,
      "cospic": 8834,
      "##curio": 8835,
      "milose": 8836,
      "montenegro": 8837,
      "austra": 8838,
      "legittime": 8839,
      "scorsi": 8840,
      "suggerimento": 8841,
      "tessili": 8842,
      "hong": 8843,
      "kong": 8844,
      "interamente": 8845,
      "##estia": 8846,
      "esige": 8847,
      "150": 8848,
      "comporti": 8849,
      "trattando": 8850,
      "vege": 8851,
      "riusciamo": 8852,
      "innocenti": 8853,
      "collettivi": 8854,
      "conseguiti": 8855,
      "eldr": 8856,
      "atmosfera": 8857,
      "istanza": 8858,
      "##ogia": 8859,
      "sil": 8860,
[...]
